{
  "!": 21,
  "!!": 23,
  "!!!": 24,
  "!\"": 25,
  "!)": 27,
  "!-[": 22,
  "!\u201d": 26,
  "\"": 49,
  "\")": 55,
  "\").": 56,
  "\",": 51,
  "\".": 54,
  "\":": 52,
  "\">": 50,
  "\"?": 53,
  "\"[": 57,
  "#": 84,
  "#:": 85,
  "$": 78,
  "$1": 310,
  "%": 86,
  "%)": 87,
  "%1$": 312,
  "&": 83,
  "&#39;": 1423,
  "'": 46,
  "(": 64,
  "(!)": 65,
  "()": 66,
  "(0)": 163,
  "(1": 307,
  "(1)": 308,
  "(19": 699,
  "(2": 836,
  "(2)": 837,
  "(212)": 1066,
  "(3": 1224,
  "(3)": 1225,
  "(312)": 1298,
  "(4": 1439,
  "(5": 1600,
  ")": 67,
  "),": 68,
  ").": 71,
  "):": 70,
  ");": 69,
  "*": 79,
  "**": 80,
  "***": 81,
  "****": 82,
  "*1": 311,
  "+": 88,
  "++": 89,
  "+0": 164,
  "+00:00": 187,
  "+1": 313,
  "+2": 839,
  ",": 14,
  ",\"": 15,
  ",000,000": 194,
  ",500": 1632,
  ",\u201d": 16,
  "-": 11,
  "--": 12,
  "--------": 13,
  "-0": 160,
  "-00": 172,
  "-01": 209,
  "-02": 220,
  "-02-": 221,
  "-03": 231,
  "-04": 241,
  "-05": 252,
  "-06": 262,
  "-07": 271,
  "-08": 281,
  "-09": 291,
  "-1": 302,
  "-10": 335,
  "-100": 354,
  "-11": 402,
  "-12": 443,
  "-13": 491,
  "-14": 526,
  "-15": 560,
  "-150": 578,
  "-16": 601,
  "-17": 627,
  "-18": 653,
  "-19": 696,
  "-1990": 815,
  "-2": 833,
  "-20": 860,
  "-200": 877,
  "-2012": 961,
  "-2016": 992,
  "-2017": 1001,
  "-2018": 1010,
  "-2019": 1019,
  "-2020": 1032,
  "-21": 1050,
  "-22": 1070,
  "-23": 1089,
  "-24": 1109,
  "-25": 1126,
  "-26": 1156,
  "-27": 1175,
  "-28": 1191,
  "-29": 1206,
  "-3": 1220,
  "-30": 1245,
  "-300": 1261,
  "-34": 1333,
  "-35": 1350,
  "-4": 1435,
  "-40": 1456,
  "-400": 1469,
  "-5": 1596,
  "-50": 1617,
  "-6": 1720,
  "-60": 1737,
  "-7": 1824,
  "-70": 1841,
  "-8": 1928,
  "-80": 1944,
  "-9": 2033,
  "-90": 2048,
  ".": 33,
  ".\"": 42,
  ".'\"": 39,
  ".''": 38,
  "...": 34,
  "...\"": 36,
  "................": 35,
  "...\u201d": 37,
  ".0%": 162,
  ".000.000": 195,
  ".000\u2019": 180,
  ".01.20": 218,
  ".02.201": 229,
  ".03.201": 239,
  ".04.20": 248,
  ".04.201": 250,
  ".05.201": 260,
  ".06.201": 269,
  ".07.20": 277,
  ".07.201": 278,
  ".08.201": 289,
  ".09.201": 298,
  ".09.2019": 299,
  ".10.201": 385,
  ".11.201": 428,
  ".12.201": 473,
  ".6%": 1723,
  ".[": 45,
  ".[1": 305,
  ".[1]": 306,
  ".[1][2]": 446,
  ".[2]": 835,
  ".[3]": 1223,
  ".[4]": 1438,
  ".[5]": 1599,
  ".\u00bb": 44,
  ".\u2019\u2019": 40,
  ".\u2019\u201d": 41,
  ".\u201d": 43,
  "/": 32,
  "/0": 161,
  "/01/": 211,
  "/02/": 223,
  "/03/": 233,
  "/04/201": 249,
  "/1": 304,
  "/10": 337,
  "/10/": 338,
  "/100": 355,
  "/11": 404,
  "/11/201": 427,
  "/12": 445,
  "/12/201": 472,
  "/14": 528,
  "/15": 562,
  "/16": 603,
  "/17": 629,
  "/18": 655,
  "/19": 698,
  "/2": 834,
  "/20": 862,
  "/2015": 983,
  "/2018": 1011,
  "/3": 1222,
  "/4": 1437,
  "/5": 1598,
  "/50": 1619,
  "/6": 1722,
  "/60": 1738,
  "/7": 1826,
  "/8": 1930,
  "/9": 2035,
  "0": 158,
  "0,00": 183,
  "0,000": 189,
  "0-0": 177,
  "0-6": 266,
  "0.0": 178,
  "0.00": 185,
  "0.000": 190,
  "0.05": 203,
  "0.06": 205,
  "0.1": 214,
  "0.10": 217,
  "0.2": 227,
  "0.3": 237,
  "0.4": 245,
  "0.5": 257,
  "0.6": 267,
  "0.8": 285,
  "0.9": 294,
  "00": 171,
  "00,000": 192,
  "000": 179,
  "0000": 186,
  "00000": 191,
  "000000": 193,
  "001": 196,
  "002": 198,
  "003": 200,
  "004": 201,
  "005": 202,
  "006": 204,
  "007": 206,
  "01": 208,
  "01)": 215,
  "010": 216,
  "02": 219,
  "020": 228,
  "03": 230,
  "030": 238,
  "04": 240,
  "04)": 246,
  "040": 247,
  "05": 251,
  "050": 258,
  "06": 261,
  "06)": 268,
  "07": 270,
  "07)": 275,
  "08": 280,
  "08)": 286,
  "080": 287,
  "09": 290,
  "09)": 295,
  "090": 296,
  "0:00": 184,
  "1": 300,
  "1%": 333,
  "1)": 332,
  "1,": 330,
  "1,0": 349,
  "1,000": 370,
  "1,5": 574,
  "1-": 329,
  "1-1": 414,
  "1-2": 458,
  "1-4": 537,
  "1-5": 573,
  "1-6": 612,
  "1.0": 350,
  "1.00": 362,
  "1.1": 415,
  "1.2": 460,
  "1.3": 502,
  "1.4": 538,
  "1.5": 575,
  "1.6": 613,
  "1.7": 637,
  "1.8": 664,
  "1.9": 707,
  "1/": 331,
  "1/2": 459,
  "10": 334,
  "10%": 352,
  "10)": 351,
  "10,000": 375,
  "100": 353,
  "100%": 363,
  "1000": 364,
  "101": 379,
  "102": 383,
  "103": 386,
  "104": 388,
  "105": 390,
  "106": 392,
  "107": 394,
  "108": 396,
  "109": 399,
  "11": 401,
  "11)": 416,
  "110": 417,
  "1100": 419,
  "111": 423,
  "112": 425,
  "113": 429,
  "114": 431,
  "115": 433,
  "116": 435,
  "117": 437,
  "119": 440,
  "12": 442,
  "12)": 461,
  "120": 462,
  "1200": 464,
  "121": 469,
  "123": 474,
  "123456": 476,
  "124": 477,
  "125": 479,
  "126": 482,
  "127": 484,
  "128": 486,
  "129": 488,
  "13": 490,
  "13)": 503,
  "130": 504,
  "131": 508,
  "134": 512,
  "13485": 514,
  "135": 515,
  "136": 517,
  "137": 519,
  "138": 521,
  "139": 523,
  "14": 525,
  "14)": 539,
  "140": 540,
  "1400": 542,
  "14001": 546,
  "14001,": 548,
  "141": 549,
  "144": 550,
  "145": 552,
  "147": 555,
  "15": 559,
  "15)": 576,
  "150": 577,
  "1500": 581,
  "151": 588,
  "152": 590,
  "155": 592,
  "156": 594,
  "157": 596,
  "158": 598,
  "159": 599,
  "16": 600,
  "16)": 614,
  "160": 615,
  "161": 619,
  "166": 621,
  "167": 622,
  "168": 623,
  "16949": 625,
  "17": 626,
  "17)": 638,
  "170": 639,
  "171": 643,
  "173": 644,
  "174": 645,
  "175": 646,
  "177": 649,
  "178": 650,
  "179": 651,
  "18": 652,
  "18)": 665,
  "180": 666,
  "1800": 668,
  "18001": 672,
  "185": 674,
  "187": 678,
  "188": 680,
  "189": 686,
  "19": 695,
  "19)": 708,
  "190": 709,
  "191": 722,
  "192": 733,
  "195": 765,
  "196": 777,
  "197": 789,
  "198": 801,
  "199": 814,
  "2": 832,
  "2%": 858,
  "2'": 856,
  "2)": 857,
  "2,000": 888,
  "2,5": 1139,
  "2-": 854,
  "2-0": 873,
  "2.0": 874,
  "2.00": 881,
  "2.000": 889,
  "2.1": 1060,
  "2.2": 1078,
  "2.3": 1099,
  "2.4": 1119,
  "2.5": 1140,
  "2.6": 1164,
  "2.7": 1182,
  "2.8": 1198,
  "2.9": 1213,
  "2/": 855,
  "20": 859,
  "20)": 875,
  "20,000": 893,
  "200": 876,
  "2000": 882,
  "2001": 896,
  "2002": 901,
  "2003": 905,
  "2004": 910,
  "2005": 915,
  "2006": 921,
  "2007": 927,
  "2008": 933,
  "2009": 940,
  "201": 946,
  "2010": 948,
  "2011": 954,
  "2012": 960,
  "2013": 968,
  "2014": 974,
  "2015": 982,
  "2016": 991,
  "2017": 1000,
  "2018": 1009,
  "2019": 1018,
  "202": 1030,
  "2020": 1031,
  "203": 1040,
  "204": 1043,
  "205": 1044,
  "206": 1046,
  "207": 1047,
  "208": 1048,
  "21": 1049,
  "21)": 1061,
  "210": 1062,
  "212": 1065,
  "216)": 1068,
  "22": 1069,
  "22)": 1079,
  "220": 1080,
  "221": 1082,
  "222": 1083,
  "226": 1085,
  "227": 1086,
  "229": 1087,
  "23": 1088,
  "23)": 1100,
  "230": 1101,
  "232": 1103,
  "234": 1104,
  "235": 1105,
  "237": 1106,
  "239": 1107,
  "24": 1108,
  "24)": 1120,
  "240": 1121,
  "249": 1124,
  "25": 1125,
  "25)": 1141,
  "250": 1142,
  "2500": 1145,
  "255": 1151,
  "256": 1152,
  "257": 1154,
  "26": 1155,
  "26)": 1165,
  "260": 1166,
  "262": 1168,
  "264": 1169,
  "265": 1170,
  "266": 1171,
  "268": 1172,
  "269": 1173,
  "27": 1174,
  "270": 1183,
  "275": 1185,
  "276": 1186,
  "277": 1187,
  "278": 1188,
  "279": 1189,
  "28": 1190,
  "28)": 1199,
  "280": 1200,
  "284": 1202,
  "288": 1203,
  "289": 1204,
  "29": 1205,
  "29)": 1214,
  "294": 1216,
  "297": 1217,
  "298": 1218,
  "2:00": 880,
  "3": 1219,
  "3%": 1243,
  "3'": 1241,
  "3)": 1242,
  "3,000": 1270,
  "3-0": 1256,
  "3.0": 1257,
  "3.00": 1266,
  "3.000": 1271,
  "3.1": 1293,
  "3.2": 1308,
  "3.3": 1322,
  "3.4": 1340,
  "3.5": 1361,
  "3.5+": 1362,
  "3.6": 1379,
  "3.7": 1391,
  "3.8": 1408,
  "3.9": 1427,
  "3/": 1240,
  "3/8": 1407,
  "30": 1244,
  "30%": 1259,
  "30)": 1258,
  "30,000": 1274,
  "300": 1260,
  "3000": 1267,
  "301": 1277,
  "304": 1278,
  "305": 1280,
  "306": 1281,
  "307": 1282,
  "308": 1283,
  "309": 1284,
  "31": 1285,
  "31)": 1294,
  "310": 1295,
  "311": 1296,
  "312": 1297,
  "316": 1300,
  "32": 1302,
  "32)": 1309,
  "320": 1310,
  "321": 1312,
  "325": 1313,
  "327": 1314,
  "328": 1315,
  "329": 1316,
  "33": 1317,
  "33)": 1323,
  "330": 1324,
  "333": 1326,
  "335": 1327,
  "336": 1328,
  "337": 1329,
  "338": 1330,
  "339": 1331,
  "34": 1332,
  "34)": 1341,
  "340": 1342,
  "341": 1344,
  "343": 1345,
  "345": 1346,
  "346": 1347,
  "347": 1348,
  "35": 1349,
  "35)": 1363,
  "350": 1364,
  "351": 1366,
  "353": 1367,
  "355": 1368,
  "356": 1369,
  "357": 1370,
  "358": 1371,
  "359": 1372,
  "36": 1373,
  "36)": 1380,
  "360": 1381,
  "365": 1383,
  "366": 1385,
  "37": 1386,
  "37)": 1392,
  "370": 1393,
  "371": 1394,
  "372": 1395,
  "373": 1396,
  "374": 1397,
  "375": 1398,
  "376": 1399,
  "377": 1400,
  "379": 1401,
  "38": 1402,
  "38)": 1409,
  "380": 1410,
  "381": 1413,
  "382": 1414,
  "384": 1415,
  "385": 1416,
  "386": 1418,
  "388": 1419,
  "39": 1420,
  "39)": 1428,
  "391": 1429,
  "392": 1430,
  "394": 1431,
  "396": 1432,
  "397": 1433,
  "3:00": 1265,
  "4": 1434,
  "4%": 1454,
  "4)": 1453,
  "4,000": 1477,
  "4,5": 1545,
  "4.0": 1465,
  "4.00": 1473,
  "4.000": 1478,
  "4.1": 1493,
  "4.2": 1503,
  "4.3": 1519,
  "4.4": 1532,
  "4.5": 1546,
  "4.6": 1560,
  "4.7": 1567,
  "4.8": 1578,
  "4.9": 1588,
  "4.99": 1594,
  "40": 1455,
  "40%": 1467,
  "40)": 1466,
  "40,000": 1480,
  "400": 1468,
  "4000": 1474,
  "404": 1482,
  "407": 1484,
  "408": 1485,
  "41": 1486,
  "41)": 1494,
  "410": 1495,
  "415": 1496,
  "418": 1497,
  "42": 1498,
  "42)": 1504,
  "420": 1505,
  "421": 1508,
  "422": 1509,
  "426": 1510,
  "427": 1511,
  "429": 1512,
  "43": 1513,
  "43)": 1520,
  "430": 1521,
  "431": 1523,
  "435": 1524,
  "436": 1525,
  "44": 1526,
  "44)": 1533,
  "442": 1535,
  "443": 1536,
  "444": 1537,
  "45": 1538,
  "45)": 1547,
  "450": 1548,
  "451": 1550,
  "454": 1551,
  "456": 1552,
  "459": 1553,
  "46": 1554,
  "46)": 1561,
  "460": 1562,
  "47": 1563,
  "47)": 1568,
  "470": 1569,
  "474": 1570,
  "476": 1571,
  "479": 1572,
  "48": 1573,
  "48)": 1579,
  "480": 1580,
  "483": 1582,
  "485": 1583,
  "488": 1584,
  "49": 1585,
  "49)": 1589,
  "490": 1590,
  "495": 1591,
  "496": 1592,
  "497": 1593,
  "5": 1595,
  "5%": 1615,
  "5)": 1614,
  "5,000": 1642,
  "5-0": 1627,
  "5.0": 1628,
  "5.00": 1636,
  "5.000": 1643,
  "5.3": 1674,
  "5.4": 1680,
  "5.5": 1686,
  "5.6": 1696,
  "5.7": 1703,
  "5.8": 1710,
  "5.9": 1717,
  "50": 1616,
  "50%": 1630,
  "50)": 1629,
  "50,000": 1647,
  "50.000": 1648,
  "500": 1631,
  "5000": 1637,
  "505": 1651,
  "51": 1653,
  "51)": 1658,
  "510": 1659,
  "512": 1661,
  "52": 1663,
  "52)": 1667,
  "520": 1668,
  "522": 1669,
  "529": 1670,
  "53": 1671,
  "53)": 1675,
  "536": 1676,
  "54": 1677,
  "54)": 1681,
  "55": 1682,
  "55)": 1687,
  "550": 1688,
  "551": 1690,
  "555": 1691,
  "56": 1692,
  "56)": 1697,
  "560": 1698,
  "57": 1699,
  "57)": 1704,
  "574": 1705,
  "576": 1706,
  "58": 1707,
  "58)": 1711,
  "586": 1712,
  "588": 1713,
  "59": 1714,
  "59)": 1718,
  "6": 1719,
  "6%": 1735,
  "6)": 1734,
  "6,000": 1756,
  "6-": 1733,
  "6.0": 1746,
  "6.00": 1752,
  "6.000": 1757,
  "6.1": 1769,
  "6.2": 1774,
  "6.3": 1781,
  "6.4": 1787,
  "6.5": 1794,
  "6.6": 1801,
  "6.7": 1809,
  "6.8": 1815,
  "6.9": 1819,
  "60": 1736,
  "60)": 1747,
  "60,000": 1759,
  "60.000": 1760,
  "600": 1748,
  "6000": 1753,
  "601": 1762,
  "608": 1763,
  "609": 1764,
  "61": 1765,
  "61)": 1770,
  "610": 1771,
  "62": 1772,
  "62)": 1775,
  "620": 1776,
  "625": 1777,
  "626": 1778,
  "63": 1779,
  "63)": 1782,
  "630": 1783,
  "64": 1784,
  "64)": 1788,
  "640": 1789,
  "65": 1790,
  "65)": 1795,
  "650": 1796,
  "655": 1798,
  "66": 1799,
  "66)": 1802,
  "660": 1803,
  "664": 1804,
  "666": 1805,
  "669": 1806,
  "67": 1807,
  "67)": 1810,
  "670": 1811,
  "677": 1812,
  "68": 1813,
  "68)": 1816,
  "69": 1817,
  "69)": 1820,
  "690": 1821,
  "698": 1822,
  "6:00": 1751,
  "7": 1823,
  "7%": 1839,
  "7)": 1838,
  "7,000": 1857,
  "7,5": 1892,
  "7.0": 1847,
  "7.00": 1854,
  "7.000": 1858,
  "7.2": 1871,
  "7.4": 1883,
  "7.5": 1893,
  "7.6": 1901,
  "7.7": 1908,
  "7.8": 1916,
  "7.9": 1923,
  "7/": 1837,
  "70": 1840,
  "70%": 1849,
  "70)": 1848,
  "70,000": 1859,
  "70.000": 1860,
  "700": 1850,
  "701": 1861,
  "709": 1862,
  "71": 1863,
  "71%": 1868,
  "71)": 1867,
  "72": 1869,
  "72)": 1872,
  "727": 1875,
  "73": 1876,
  "73)": 1878,
  "730": 1879,
  "731": 1880,
  "74": 1881,
  "74)": 1884,
  "740": 1885,
  "745": 1886,
  "75": 1888,
  "75)": 1894,
  "750": 1895,
  "755": 1897,
  "757": 1898,
  "76": 1899,
  "76)": 1902,
  "760": 1903,
  "767": 1904,
  "768": 1905,
  "77": 1906,
  "77%": 1910,
  "77)": 1909,
  "770": 1911,
  "775": 1912,
  "777": 1913,
  "78": 1914,
  "78%": 1918,
  "78)": 1917,
  "780": 1919,
  "789": 1920,
  "79": 1921,
  "79%": 1925,
  "79)": 1924,
  "790": 1926,
  "7:00": 1853,
  "8": 1927,
  "8%": 1942,
  "8)": 1941,
  "8,000": 1960,
  "8-0": 1949,
  "8.0": 1950,
  "8.00": 1956,
  "8.000": 1961,
  "8.1": 1970,
  "8.2": 1975,
  "8.3": 1982,
  "8.5": 1995,
  "8.6": 2005,
  "8.8": 2019,
  "8.9": 2028,
  "8/": 1940,
  "80": 1943,
  "80%": 1952,
  "80)": 1951,
  "80,000": 1962,
  "80.000": 1963,
  "800": 1953,
  "8000": 1957,
  "808": 1965,
  "81": 1966,
  "81%": 1972,
  "81)": 1971,
  "82": 1973,
  "82)": 1976,
  "820": 1977,
  "827": 1978,
  "829": 1979,
  "83": 1980,
  "83%": 1984,
  "83)": 1983,
  "838": 1985,
  "84": 1986,
  "84%": 1989,
  "84)": 1988,
  "840": 1990,
  "85": 1991,
  "85)": 1996,
  "850": 1997,
  "855": 1999,
  "858": 2000,
  "86": 2001,
  "86%": 2007,
  "86)": 2006,
  "860": 2008,
  "866": 2009,
  "868": 2010,
  "87": 2011,
  "87%": 2014,
  "87)": 2013,
  "870": 2015,
  "877": 2016,
  "88": 2017,
  "88%": 2021,
  "88)": 2020,
  "880": 2022,
  "885": 2023,
  "888": 2024,
  "889": 2025,
  "89": 2026,
  "89%": 2030,
  "89)": 2029,
  "890": 2031,
  "9": 2032,
  "9%": 2046,
  "9)": 2044,
  "9,000": 2062,
  "9.0": 2054,
  "9.00": 2060,
  "9.000": 2063,
  "9.1": 2075,
  "9.4": 2090,
  "9.5": 2096,
  "9.6": 2104,
  "9.7": 2110,
  "9.8": 2116,
  "9.9": 2124,
  "9.99": 2131,
  "9/": 2043,
  "90": 2047,
  "90%": 2056,
  "90)": 2055,
  "90,000": 2064,
  "900": 2057,
  "9000": 2061,
  "9001": 2065,
  "9001,": 2067,
  "9001:2000": 2068,
  "9001:2008": 2069,
  "905": 2070,
  "909": 2071,
  "91": 2072,
  "91%": 2077,
  "91)": 2076,
  "92": 2080,
  "92%": 2083,
  "92)": 2082,
  "920": 2084,
  "93": 2085,
  "93)": 2087,
  "94": 2088,
  "94%": 2092,
  "94)": 2091,
  "95": 2093,
  "95%": 2098,
  "95)": 2097,
  "950": 2099,
  "96": 2101,
  "96)": 2105,
  "960": 2106,
  "97": 2107,
  "97)": 2111,
  "970": 2112,
  "98": 2113,
  "98)": 2117,
  "980": 2118,
  "987": 2119,
  "99": 2120,
  "99%": 2126,
  "99)": 2125,
  "99.99": 2134,
  "990": 2127,
  "999": 2128,
  "9999": 2133,
  "9]": 2045,
  ":": 18,
  ":))": 20,
  "://": 19,
  ":00": 173,
  ":00-23:59": 199,
  ":01": 210,
  ":02": 222,
  ":03": 232,
  ":04": 242,
  ":05": 253,
  ":06": 263,
  ":07": 272,
  ":08": 282,
  ":1": 303,
  ":10": 336,
  ":11": 403,
  ":12": 444,
  ":13": 492,
  ":14": 527,
  ":15": 561,
  ":16": 602,
  ":17": 628,
  ":18": 654,
  ":19": 697,
  ":20": 861,
  ":21": 1051,
  ":22": 1071,
  ":23": 1090,
  ":24": 1110,
  ":25": 1127,
  ":26": 1157,
  ":27": 1176,
  ":28": 1192,
  ":29": 1207,
  ":3": 1221,
  ":30": 1246,
  ":31": 1286,
  ":32": 1303,
  ":33": 1318,
  ":34": 1334,
  ":35": 1351,
  ":36": 1374,
  ":37": 1387,
  ":38": 1403,
  ":39": 1421,
  ":4": 1436,
  ":40": 1457,
  ":41": 1487,
  ":42": 1499,
  ":43": 1514,
  ":44": 1527,
  ":45": 1539,
  ":46": 1555,
  ":47": 1564,
  ":48": 1574,
  ":5": 1597,
  ":50": 1618,
  ":51": 1654,
  ":52": 1664,
  ":53": 1672,
  ":54": 1678,
  ":55": 1683,
  ":56": 1693,
  ":57": 1700,
  ":58": 1708,
  ":59": 1715,
  ":6": 1721,
  ":7": 1825,
  ":8": 1929,
  ":86-": 2002,
  ":9": 2034,
  ";": 17,
  "</s>": 43741,
  "<s>": 43742,
  "<unk>": 52508,
  "=": 0,
  "=\"": 4,
  "=\"1": 301,
  "=0": 159,
  "==": 1,
  "===": 2,
  "====": 3,
  ">": 5,
  ">>": 6,
  "?": 28,
  "?\"": 30,
  "???": 29,
  "?\u201d": 31,
  "@": 77,
  "A": 2137,
  "AA": 2142,
  "AB": 2151,
  "ABA": 2155,
  "ABD": 2171,
  "ABILITY": 2219,
  "ABLE": 2236,
  "AB\u0130L\u0130R": 2208,
  "AC": 2301,
  "ACE": 2443,
  "ACK": 2554,
  "ACT": 2591,
  "AD": 2651,
  "ADA": 2656,
  "ADE": 2747,
  "ADI": 2770,
  "AF": 2962,
  "AG": 3032,
  "AGE": 3069,
  "AH": 3158,
  "AI": 3181,
  "AIDS": 3186,
  "AIR": 3223,
  "AK": 3264,
  "AL": 3389,
  "ALI": 3580,
  "ALL": 3683,
  "AM": 3872,
  "AMA": 3879,
  "AMP": 4020,
  "AN": 4040,
  "ANA": 4047,
  "ANCE": 4126,
  "AND": 4141,
  "ANDA": 4145,
  "ANG": 4182,
  "ANI": 4212,
  "ANLAR": 4288,
  "ANLI": 4357,
  "ANS": 4430,
  "ANT": 4442,
  "ANU": 4516,
  "ANYA": 4526,
  "AP": 4546,
  "API": 4569,
  "APP": 4590,
  "AR": 4699,
  "ARA": 4706,
  "ARD": 4870,
  "ARI": 4912,
  "ART": 5073,
  "ARTICLES": 5094,
  "ARY": 5152,
  "AS": 5162,
  "ASH": 5207,
  "ASI": 5215,
  "ASS": 5306,
  "AST": 5380,
  "ASTER": 5386,
  "ASYON": 5428,
  "AT": 5434,
  "ATA": 5440,
  "ATE": 5460,
  "ATED": 5462,
  "ATH": 5477,
  "ATI": 5489,
  "ATING": 5509,
  "ATION": 5511,
  "ATIONS": 5514,
  "ATOR": 5562,
  "AU": 5631,
  "AWG": 5837,
  "AY": 5853,
  "AYI": 5916,
  "AZ": 5999,
  "Ab": 2149,
  "Abdu": 2175,
  "About": 2254,
  "Abraham": 2260,
  "Ac": 2299,
  "Academi": 2313,
  "Academic": 2316,
  "Accelerat": 2347,
  "Access": 2368,
  "According": 2405,
  "Account": 2411,
  "Achieving": 2465,
  "Acts": 2633,
  "Actually": 2637,
  "Ad": 2649,
  "Adam": 2668,
  "Adapt": 2691,
  "Add": 2718,
  "Advanced": 2891,
  "Africa": 3011,
  "Afrika": 3014,
  "After": 3021,
  "Again": 3058,
  "Ah": 3156,
  "Aile": 3190,
  "Air": 3221,
  "Ak": 3262,
  "Akustik": 3380,
  "Ak\u0131ll\u0131": 3288,
  "Al": 3387,
  "Alex": 3546,
  "Ali": 3578,
  "Alk\u0131\u015f": 3675,
  "All": 3681,
  "Allah": 3689,
  "Almanya": 3756,
  "Alpha": 3787,
  "Also": 3802,
  "Although": 3824,
  "Alt\u0131n": 3831,
  "Aluminum": 3857,
  "Am": 3870,
  "Ama": 3877,
  "America": 3971,
  "American": 3974,
  "Amerika": 3979,
  "Amerikal\u0131": 3981,
  "Amerikan": 3985,
  "An": 4038,
  "Ana": 4045,
  "Analysis": 4083,
  "Ancak": 4123,
  "And": 4139,
  "Android": 4165,
  "Angel": 4185,
  "Animal": 4225,
  "Ann": 4365,
  "Anne": 4371,
  "Another": 4427,
  "Antalya": 4447,
  "Anti": 4465,
  "Any": 4522,
  "Anyone": 4531,
  "App": 4588,
  "Applause": 4615,
  "Apple": 4617,
  "Application": 4630,
  "April": 4679,
  "Ar": 4697,
  "Ara": 4704,
  "Arab": 4707,
  "Araba": 4711,
  "Arap": 4782,
  "Ara\u015ft\u0131rma": 4803,
  "Archive": 4863,
  "Are": 4884,
  "Argent": 4897,
  "Arkada\u015f": 4957,
  "Armenia": 5011,
  "Art": 5071,
  "Article": 5089,
  "Art\u0131k": 5101,
  "As": 5160,
  "Ask": 5252,
  "Asla": 5278,
  "Asl\u0131nda": 5287,
  "Assad": 5307,
  "At": 5432,
  "Ate\u015f": 5467,
  "August": 5656,
  "Australia": 5669,
  "Author": 5682,
  "Auto": 5701,
  "Automatic": 5713,
  "Avrupa": 5792,
  "Avustralya": 5803,
  "Ay": 5851,
  "Ayn\u0131": 5952,
  "Ayr\u0131": 5958,
  "Ayr\u0131ca": 5962,
  "Azur": 6048,
  "A\u00e7\u0131k": 2485,
  "A\u011f": 3035,
  "A\u015eI": 5216,
  "A\u015fk": 5255,
  "B": 6052,
  "BA": 6058,
  "BAL": 6377,
  "BAN": 6441,
  "BAR": 6514,
  "BASE": 6641,
  "BB": 6942,
  "BC": 6949,
  "BE": 6959,
  "BEL": 7195,
  "BER": 7407,
  "BET": 7484,
  "BI": 7558,
  "BIT": 8099,
  "BL": 8192,
  "BLE": 8231,
  "BM": 8329,
  "BN": 8334,
  "BO": 8339,
  "BOARD": 8345,
  "BODY": 8377,
  "BP": 8759,
  "BR": 8766,
  "BRA": 8771,
  "BRI": 8874,
  "BS": 9016,
  "BSCI": 9018,
  "BT": 9019,
  "BTC": 9021,
  "BU": 9027,
  "BUR": 9329,
  "Ba": 6056,
  "Baba": 6066,
  "Baby": 6090,
  "Back": 6110,
  "Baggage": 6158,
  "Bah": 6233,
  "Bak": 6288,
  "Bakara": 6308,
  "Bal": 6375,
  "Bana": 6443,
  "Bank": 6468,
  "Bar": 6512,
  "Bar\u0131\u015f": 6558,
  "Bas": 6591,
  "Based": 6646,
  "Basic": 6659,
  "Bat\u0131": 6864,
  "Bay": 6897,
  "Bayan": 6902,
  "Bazen": 6929,
  "Baz\u0131": 6933,
  "Ba\u011f": 6151,
  "Ba\u015f": 6596,
  "Ba\u015far\u0131": 6615,
  "Ba\u015fka": 6700,
  "Ba\u015flang\u0131\u00e7": 6760,
  "Be": 6957,
  "Beautiful": 6999,
  "Because": 7024,
  "Bedroom": 7067,
  "Before": 7087,
  "Behold": 7128,
  "Being": 7133,
  "Bekle": 7143,
  "Believe": 7231,
  "Belki": 7300,
  "Ben": 7328,
  "Bence": 7332,
  "Beni": 7360,
  "Benim": 7366,
  "Benz": 7383,
  "Best": 7475,
  "Better": 7500,
  "Bey": 7517,
  "Beyaz": 7525,
  "Be\u015f": 7444,
  "Bi": 7556,
  "Big": 7606,
  "Bil": 7625,
  "Bilgi": 7706,
  "Bilim": 7746,
  "Bill": 7815,
  "Bir": 7921,
  "Biraz": 7961,
  "Birka\u00e7": 8049,
  "Birth": 8077,
  "Bir\u00e7ok": 7988,
  "Bit": 8097,
  "Biz": 8163,
  "Bize": 8173,
  "Bizim": 8179,
  "Black": 8198,
  "Blowjob": 8311,
  "Blue": 8318,
  "Bo": 8337,
  "Bodrum": 8371,
  "Book": 8530,
  "Both": 8634,
  "Box": 8682,
  "Boy": 8690,
  "Br": 8764,
  "Brand": 8799,
  "Brazil": 8817,
  "Break": 8831,
  "Brien": 8889,
  "Bring": 8906,
  "British": 8917,
  "Brother": 8972,
  "Brown": 8982,
  "Brunette": 8998,
  "Bu": 9025,
  "Bug\u00fcn": 9078,
  "Build": 9092,
  "Bunlar": 9301,
  "Bunu": 9316,
  "Bunun": 9319,
  "Burada": 9332,
  "Buraya": 9348,
  "Business": 9419,
  "But": 9434,
  "By": 9545,
  "B\u00f6l\u00fcm": 8462,
  "B\u00f6yle": 8706,
  "B\u00fct\u00fcn": 9455,
  "B\u00fcy\u00fc": 9474,
  "B\u00fcy\u00fck": 9486,
  "B\u0131rak": 7925,
  "C": 9558,
  "CA": 9568,
  "CAD": 9594,
  "CAM": 9816,
  "CAN": 9862,
  "CAP": 9928,
  "CAR": 9986,
  "CAS": 10112,
  "CAT": 10159,
  "CB": 10252,
  "CC": 10257,
  "CD": 10268,
  "CE": 10275,
  "CENT": 10424,
  "CF": 10605,
  "CH": 10612,
  "CHA": 10618,
  "CHO": 10904,
  "CI": 10979,
  "CIS": 11240,
  "CK": 11306,
  "CL": 11315,
  "CM": 11503,
  "CN": 11508,
  "CO": 11517,
  "COL": 11688,
  "COM": 11787,
  "CON": 12065,
  "COUNT": 12684,
  "CP": 12800,
  "CR": 12808,
  "CS": 13026,
  "CT": 13031,
  "CU": 13043,
  "CY": 13216,
  "Ca": 9566,
  "Cal": 9653,
  "Call": 9790,
  "Cam": 9814,
  "Can": 9860,
  "Canada": 9867,
  "Cannot": 9914,
  "Captain": 9971,
  "Car": 9984,
  "Carbon": 9999,
  "Card": 10006,
  "Care": 10021,
  "Cas": 10110,
  "Cash": 10124,
  "Casino": 10130,
  "Cast": 10141,
  "Cat": 10157,
  "Category": 10186,
  "Cause": 10219,
  "Center": 10427,
  "Central": 10436,
  "Certainly": 10494,
  "Ch": 10610,
  "Cha": 10616,
  "Change": 10670,
  "Char": 10698,
  "Chat": 10751,
  "Che": 10758,
  "Cheap": 10762,
  "Check": 10774,
  "Chi": 10841,
  "Chief": 10856,
  "Child": 10860,
  "Children": 10867,
  "China": 10882,
  "Chinese": 10886,
  "Chris": 10933,
  "Christian": 10937,
  "Chuckles": 10967,
  "Circ": 11213,
  "City": 11266,
  "Civil": 11278,
  "Cl": 11314,
  "Class": 11350,
  "Clean": 11379,
  "Clear": 11392,
  "Click": 11411,
  "Close": 11457,
  "Cloud": 11481,
  "Co": 11515,
  "Code": 11613,
  "Coffee": 11625,
  "Coin": 11658,
  "Col": 11686,
  "Cola": 11692,
  "Collaborat": 11701,
  "Collect": 11721,
  "College": 11734,
  "Color": 11760,
  "Com": 11785,
  "Come": 11809,
  "Comment": 11846,
  "Commerce": 11854,
  "Commercial": 11858,
  "Comp": 11911,
  "Company": 11923,
  "Complete": 11982,
  "Computer": 12053,
  "Con": 12063,
  "Connect": 12215,
  "Connell": 12231,
  "Connor": 12232,
  "Contact": 12347,
  "Control": 12439,
  "Cookies": 12500,
  "Cool": 12507,
  "Copyright": 12553,
  "Cor": 12557,
  "Corruption": 12630,
  "Could": 12666,
  "Count": 12682,
  "Course": 12728,
  "Cr": 12807,
  "Create": 12862,
  "Credit": 12890,
  "Cross": 12970,
  "Crypt": 13014,
  "Cumhurba\u015fkanl\u0131\u011f\u0131": 13103,
  "Cupid": 13125,
  "Curiosity": 13138,
  "Current": 13147,
  "Custom": 13173,
  "Customer": 13177,
  "Customized": 13187,
  "Cut": 13193,
  "Cycl": 13223,
  "D": 13252,
  "DA": 13258,
  "DAN": 13396,
  "DAR": 13441,
  "DAY": 13532,
  "DB": 13568,
  "DC": 13572,
  "DD": 13575,
  "DE": 13586,
  "DEM": 14013,
  "DEN": 14079,
  "DENT": 14174,
  "DER": 14257,
  "DEX": 14588,
  "DF": 14602,
  "DI": 14614,
  "DIR": 14940,
  "DM": 15368,
  "DN": 15373,
  "DNA": 15374,
  "DO": 15381,
  "DOOR": 15770,
  "DP": 15887,
  "DR": 15893,
  "DRIVE": 15979,
  "DS": 16028,
  "DT": 16031,
  "DU": 16036,
  "DUR": 16158,
  "DVD": 16513,
  "DX": 16521,
  "Da": 13256,
  "Daddy": 13264,
  "Daha": 13298,
  "Daniel": 13410,
  "Dark": 13451,
  "Data": 13470,
  "David": 13497,
  "Day": 13530,
  "De": 13584,
  "Dear": 13610,
  "Death": 13614,
  "Dec": 13634,
  "December": 13647,
  "Deep": 13739,
  "Defense": 13771,
  "Democracy": 14043,
  "Democratic": 14049,
  "Demokrat": 14058,
  "Deniz": 14148,
  "Department": 14193,
  "Depend": 14200,
  "Design": 14353,
  "Despite": 14388,
  "Details": 14448,
  "Determin": 14482,
  "Deuteronomy": 14503,
  "Deutsch": 14504,
  "Devam": 14510,
  "Devam\u0131": 14513,
  "Develop": 14523,
  "Devlet": 14553,
  "De\u011fi\u015f": 13856,
  "Di": 14612,
  "Did": 14677,
  "Digital": 14766,
  "Dikkat": 14789,
  "Direct": 14945,
  "Director": 14960,
  "Dis": 15001,
  "Disc": 15054,
  "Distributor": 15257,
  "Di\u011fer": 14722,
  "Do": 15379,
  "Doctor": 15393,
  "Document": 15404,
  "Does": 15417,
  "Doktor": 15496,
  "Don": 15636,
  "Donald": 15641,
  "Donnell": 15721,
  "Double": 15836,
  "Down": 15860,
  "Download": 15865,
  "Do\u011fa": 15426,
  "Do\u011fru": 15454,
  "Do\u011fu": 15476,
  "Dr": 15891,
  "Dragon": 15905,
  "Dream": 15939,
  "Drinks": 15972,
  "Drive": 15977,
  "Du": 16034,
  "Dubai": 16046,
  "Dur": 16156,
  "Dutch": 16367,
  "D\u00fcnya": 16125,
  "D\u00fcnyan\u0131n": 16134,
  "D\u00fcz": 16451,
  "D\u00fczenle": 16467,
  "D\u00fc\u015f\u00fck": 16267,
  "D\u00fc\u015f\u00fcn": 16273,
  "D\u0130": 14617,
  "D\u0130R": 14942,
  "E": 16548,
  "EA": 16551,
  "EACH": 16557,
  "EAN": 16564,
  "EAR": 16568,
  "EAS": 16595,
  "EAST": 16608,
  "EB": 16630,
  "EC": 16679,
  "ECE": 16684,
  "ECT": 16735,
  "ED": 16751,
  "EE": 16945,
  "EEC": 16947,
  "EEP": 16950,
  "EET": 16953,
  "EF": 16955,
  "EG": 17000,
  "EIGHT": 17081,
  "EK": 17100,
  "EL": 17212,
  "ELE": 17248,
  "ELL": 17395,
  "ELS": 17426,
  "ELT": 17432,
  "EL\u0130": 17352,
  "EM": 17442,
  "EMA": 17445,
  "EMBER": 17470,
  "EME": 17491,
  "EN": 17629,
  "ENCE": 17644,
  "END": 17680,
  "END\u0130": 17691,
  "ENE": 17731,
  "ENER": 17738,
  "ENG": 17775,
  "ENGLISH": 17819,
  "ENS": 17875,
  "ENT": 17897,
  "EP": 17981,
  "EPA": 17983,
  "ER": 18043,
  "ERA": 18048,
  "ERE": 18065,
  "ERN": 18136,
  "ERS": 18159,
  "ES": 18175,
  "ESA": 18180,
  "ESS": 18277,
  "EST": 18293,
  "ES\u0130": 18219,
  "ET": 18338,
  "ET\u0130": 18377,
  "EU": 18574,
  "EUR": 18580,
  "EV": 18605,
  "EVER": 18654,
  "EX": 18775,
  "EY": 19074,
  "EZ": 19111,
  "Each": 16555,
  "Earth": 16588,
  "East": 16606,
  "Eastern": 16612,
  "Easy": 16616,
  "Eco": 16709,
  "Economic": 16720,
  "Edit": 16896,
  "Education": 16935,
  "Efendim": 16965,
  "Ek": 17098,
  "Ekonomi": 17159,
  "El": 17210,
  "Elbette": 17224,
  "Elective": 17262,
  "Electric": 17268,
  "Electronic": 17289,
  "Elektrik": 17305,
  "Embroider": 17484,
  "Employ": 17586,
  "En": 17627,
  "End": 17678,
  "End\u00fcstri": 17722,
  "Energy": 17745,
  "Enerji": 17750,
  "Engine": 17802,
  "English": 17817,
  "Enhanced": 17829,
  "Enjoy": 17842,
  "Enter": 17908,
  "Entrepreneurship": 17943,
  "Environment": 17960,
  "Ephesians": 17987,
  "Er": 18041,
  "Erkek": 18115,
  "Ermeni": 18132,
  "Eski": 18240,
  "Etki": 18396,
  "Euro": 18585,
  "Europe": 18589,
  "European": 18592,
  "Ev": 18603,
  "Even": 18639,
  "Every": 18660,
  "Everybody": 18664,
  "Everyone": 18669,
  "Everything": 18673,
  "Evet": 18680,
  "Ex": 18773,
  "Except": 18822,
  "Exclud": 18843,
  "Excuse": 18855,
  "Existing": 18905,
  "Exodus": 18909,
  "Express": 19011,
  "Extra": 19049,
  "Ey": 19072,
  "Eye": 19083,
  "E\u011fer": 17013,
  "E\u011fitim": 17034,
  "F": 19120,
  "FA": 19126,
  "FC": 19450,
  "FDA": 19453,
  "FE": 19459,
  "FER": 19581,
  "FET": 19622,
  "FF": 19644,
  "FI": 19653,
  "FIN": 19821,
  "FL": 20024,
  "FLEX": 20085,
  "FM": 20176,
  "FO": 20181,
  "FOR": 20279,
  "FOREIGN": 20307,
  "FORM": 20352,
  "FP": 20477,
  "FR": 20481,
  "FS": 20659,
  "FT": 20663,
  "FTA": 20665,
  "FU": 20670,
  "FUL": 20697,
  "FX": 20786,
  "Fa": 19124,
  "Face": 19158,
  "Facebook": 19161,
  "Factory": 19192,
  "Faculty": 19198,
  "Fakat": 19235,
  "Family": 19280,
  "Far": 19311,
  "Fashion": 19361,
  "Fast": 19369,
  "Father": 19388,
  "Fe": 19457,
  "Fear": 19462,
  "Feature": 19479,
  "February": 19488,
  "Female": 19555,
  "Fi": 19651,
  "Fight": 19699,
  "Figure": 19712,
  "File": 19750,
  "Film": 19776,
  "Final": 19824,
  "Fince": 19848,
  "Find": 19852,
  "Finnish": 19887,
  "First": 19942,
  "Fl": 20023,
  "Fleece": 20074,
  "Flix": 20103,
  "Flow": 20141,
  "Focus": 20189,
  "Follow": 20220,
  "Food": 20253,
  "Foot": 20265,
  "Footnote": 20271,
  "For": 20277,
  "Force": 20288,
  "Forgive": 20332,
  "Forgiving": 20340,
  "Form": 20350,
  "Foto\u011fraf": 20433,
  "Four": 20468,
  "France": 20505,
  "Frank": 20515,
  "Fransa": 20522,
  "Frans\u0131z": 20525,
  "Free": 20547,
  "Freedom": 20553,
  "French": 20572,
  "Friday": 20597,
  "Friend": 20607,
  "From": 20630,
  "Front": 20636,
  "Fuck": 20678,
  "Full": 20707,
  "Fun": 20718,
  "G": 20791,
  "GA": 20798,
  "GAN": 20882,
  "GAR": 20898,
  "GB": 20996,
  "GE": 21005,
  "GEM": 21293,
  "GEN": 21310,
  "GER": 21443,
  "GET": 21592,
  "GF": 21672,
  "GG": 21675,
  "GH": 21683,
  "GHz": 21691,
  "GI": 21696,
  "GL": 21974,
  "GM": 22044,
  "GN": 22053,
  "GO": 22064,
  "GONNA": 22205,
  "GP": 22609,
  "GR": 22616,
  "GRA": 22622,
  "GS": 22884,
  "GT": 22889,
  "GU": 22896,
  "Ga": 20796,
  "Galatians": 20827,
  "Game": 20868,
  "Gar": 20896,
  "Ge": 21003,
  "Gel": 21140,
  "Gelecek": 21173,
  "Geli\u015f": 21207,
  "Gen": 21308,
  "Genel": 21330,
  "General": 21340,
  "Genesis": 21362,
  "Gen\u00e7": 21312,
  "Geology": 21426,
  "George": 21433,
  "Geri": 21561,
  "Germain": 21574,
  "German": 21576,
  "Germany": 21579,
  "Ger\u00e7ek": 21454,
  "Ger\u00e7ekten": 21494,
  "Get": 21590,
  "Getty": 21639,
  "Ge\u00e7en": 21035,
  "Ge\u00e7ici": 21049,
  "Ge\u00e7mi\u015f": 21112,
  "Giri\u015f": 21834,
  "Girl": 21852,
  "Give": 21926,
  "Gizli": 21966,
  "Glass": 21989,
  "Global": 22012,
  "Gluten": 22042,
  "Go": 22062,
  "God": 22086,
  "Gold": 22136,
  "Good": 22212,
  "Google": 22221,
  "Gra": 22620,
  "Graduate": 22645,
  "Grand": 22679,
  "Great": 22755,
  "Greece": 22766,
  "Greek": 22770,
  "Green": 22775,
  "Group": 22847,
  "Gu": 22894,
  "Guangdong": 22906,
  "Guard": 22917,
  "Gym": 23207,
  "G\u00f6k": 22114,
  "G\u00f6r": 22227,
  "G\u00f6z": 22562,
  "G\u00fcl": 23005,
  "G\u00fcl\u00fc\u015fmeler": 23023,
  "G\u00fcn": 23038,
  "G\u00fcney": 23075,
  "G\u00fcne\u015f": 23068,
  "G\u00fcven": 23144,
  "G\u00fcvenlik": 23175,
  "G\u00fczel": 23193,
  "H": 23213,
  "HA": 23219,
  "HAN": 23481,
  "HAR": 23576,
  "HC": 24001,
  "HD": 24003,
  "HE": 24015,
  "HER": 24243,
  "HF": 24352,
  "HI": 24359,
  "HK": 24617,
  "HL": 24620,
  "HM": 24622,
  "HO": 24630,
  "HONG": 24737,
  "HOST": 24847,
  "HP": 24921,
  "HQ": 24924,
  "HR": 24927,
  "HS": 24935,
  "HT": 24939,
  "HU": 24952,
  "HUANG": 24961,
  "HZ": 25178,
  "Ha": 23217,
  "Haber": 23225,
  "Hacettepe": 23250,
  "Hadi": 23272,
  "Hak": 23321,
  "Halk": 23415,
  "Hamster": 23474,
  "Hand": 23486,
  "Hangi": 23522,
  "Happy": 23568,
  "Har": 23574,
  "Haritay": 23655,
  "Hasta": 23716,
  "Hava": 23820,
  "Have": 23848,
  "Having": 23854,
  "Hayal": 23878,
  "Hayat": 23887,
  "Haydi": 23924,
  "Hayvan": 23944,
  "Hay\u0131r": 23930,
  "He": 24013,
  "Head": 24019,
  "Health": 24045,
  "Hear": 24056,
  "Heavy": 24089,
  "Heb": 24091,
  "Hebei": 24092,
  "Hello": 24169,
  "Help": 24176,
  "Hemen": 24191,
  "Henry": 24209,
  "Hepimiz": 24222,
  "Hepsi": 24230,
  "Hepsini": 24236,
  "Her": 24241,
  "Here": 24256,
  "Herhangi": 24268,
  "Herkes": 24275,
  "Hey": 24339,
  "Hi": 24357,
  "High": 24399,
  "His": 24503,
  "Hispanic": 24508,
  "History": 24556,
  "Hizmet": 24593,
  "Hi\u00e7": 24367,
  "Hi\u00e7bir": 24371,
  "Ho": 24628,
  "Home": 24699,
  "Homsar": 24721,
  "Honest": 24728,
  "Hons": 24747,
  "Hope": 24762,
  "Host": 24845,
  "Hot": 24867,
  "Hotel": 24872,
  "Hour": 24888,
  "House": 24894,
  "How": 24912,
  "However": 24917,
  "Ho\u015f": 24815,
  "Hu": 24950,
  "Hub": 24966,
  "Human": 25030,
  "Hydraulic": 25141,
  "Hz": 25176,
  "I": 25181,
  "IA": 25188,
  "IAL": 25194,
  "IAN": 25197,
  "IC": 25227,
  "ICA": 25236,
  "ICAL": 25240,
  "ICE": 25248,
  "ICI": 25303,
  "ICO": 25351,
  "ICS": 25359,
  "ID": 25371,
  "IDA": 25375,
  "IDE": 25390,
  "IE": 25440,
  "IEC": 25442,
  "IES": 25453,
  "IF": 25460,
  "IFF": 25471,
  "IFICATION": 25476,
  "IG": 25489,
  "IGHT": 25498,
  "II": 25563,
  "III": 25566,
  "IK": 25572,
  "IL": 25626,
  "ILI": 25755,
  "ILL": 25814,
  "IM": 25886,
  "IMO": 25993,
  "IN": 26106,
  "INA": 26112,
  "INDA": 26266,
  "INE": 26365,
  "ING": 26448,
  "INGS": 26465,
  "INI": 26480,
  "INIZ": 26500,
  "INO": 26556,
  "INS": 26568,
  "INT": 26717,
  "IO": 26948,
  "ION": 26952,
  "IONS": 26955,
  "IOUS": 26961,
  "IP": 26965,
  "IPS": 26983,
  "IR": 26998,
  "IS": 27076,
  "ISA": 27091,
  "ISE": 27128,
  "ISH": 27139,
  "ISI": 27146,
  "ISO": 27326,
  "ISS": 27357,
  "IST": 27374,
  "IT": 27565,
  "ITE": 27586,
  "ITY": 27638,
  "IV": 27644,
  "IVE": 27652,
  "IX": 27664,
  "IYOR": 27706,
  "IZ": 27725,
  "If": 25458,
  "Image": 25897,
  "Import": 26046,
  "In": 26104,
  "Indeed": 26273,
  "India": 26289,
  "Indian": 26292,
  "Industrial": 26354,
  "Industry": 26361,
  "Information": 26434,
  "Institut": 26678,
  "Integrated": 26725,
  "Inter": 26760,
  "International": 26807,
  "Internet": 26812,
  "Invest": 26910,
  "IoT": 26958,
  "Iran": 27007,
  "Iraq": 27013,
  "Is": 27074,
  "Isaiah": 27099,
  "Islam": 27234,
  "Islamic": 27241,
  "Israel": 27342,
  "Israeli": 27344,
  "Istanbul": 27381,
  "It": 27563,
  "Italian": 27574,
  "Italy": 27576,
  "J": 27798,
  "JA": 27804,
  "JI": 27964,
  "JP": 28063,
  "JPY": 28067,
  "Ja": 27802,
  "Jack": 27809,
  "James": 27841,
  "January": 27853,
  "Japan": 27856,
  "Japanese": 27859,
  "Japon": 27862,
  "Je": 27886,
  "Jehovah": 27902,
  "Jesus": 27943,
  "Jewish": 27957,
  "Ji": 27962,
  "Jiangsu": 27968,
  "Jo": 27984,
  "Job": 27991,
  "John": 28005,
  "Join": 28011,
  "Joseph": 28041,
  "Journal": 28047,
  "Ju": 28071,
  "July": 28105,
  "June": 28118,
  "Just": 28137,
  "K": 28150,
  "KA": 28156,
  "KAN": 28537,
  "KAR": 28686,
  "KE": 29238,
  "KEN": 29299,
  "KER": 29373,
  "KET": 29444,
  "KEY": 29457,
  "KG": 29478,
  "KI": 29495,
  "KIN": 29636,
  "KK": 29898,
  "KM": 29940,
  "KN": 29947,
  "KO": 29999,
  "KON": 30172,
  "KR": 30574,
  "KS": 30643,
  "KT": 30645,
  "KU": 30658,
  "KV": 31126,
  "KW": 31131,
  "Ka": 28154,
  "Kad\u0131n": 28251,
  "Kad\u0131nlar": 28260,
  "Kahkaha": 28308,
  "Kahve": 28323,
  "Kal": 28334,
  "Kalite": 28441,
  "Kan": 28535,
  "Kapa": 28595,
  "Kap\u0131": 28635,
  "Kar": 28684,
  "Kara": 28692,
  "Karabakh": 28695,
  "Karde\u015f": 28745,
  "Kay": 29046,
  "Kaynak": 29144,
  "Kazan": 29178,
  "Ka\u00e7": 28197,
  "Ke": 29236,
  "Keep": 29252,
  "Kendi": 29309,
  "Kesinlikle": 29424,
  "Key": 29455,
  "Ke\u015fke": 29433,
  "Ki": 29493,
  "Kids": 29527,
  "Kill": 29569,
  "Kim": 29594,
  "Kimse": 29616,
  "King": 29653,
  "Kitap": 29813,
  "Ki\u015fisel": 29762,
  "Know": 29977,
  "Knowing": 29982,
  "Ko": 29997,
  "Kon": 30170,
  "Konstantinopolis": 30219,
  "Konu": 30238,
  "Kor": 30370,
  "Korku": 30402,
  "Kral": 30581,
  "Kul": 30691,
  "Kullan\u0131c\u0131": 30739,
  "Kur": 30883,
  "Kutsal": 31075,
  "Kuzey": 31118,
  "K\u00dc": 30663,
  "K\u00f6t\u00fc": 30506,
  "K\u00fc\u00e7\u00fck": 30677,
  "K\u0130": 29500,
  "K\u0131rm\u0131z\u0131": 29716,
  "K\u0131sa": 29727,
  "K\u0131z": 29868,
  "L": 31142,
  "LA": 31148,
  "LAB": 31155,
  "LAMA": 31239,
  "LAN": 31278,
  "LAND": 31296,
  "LAR": 31377,
  "LARI": 31395,
  "LARIMIZ": 31402,
  "LARIN": 31411,
  "LAS": 31436,
  "LAY": 31566,
  "LA\u015e": 31438,
  "LB": 31612,
  "LC": 31616,
  "LD": 31621,
  "LE": 31629,
  "LED": 31698,
  "LEME": 31762,
  "LEN": 31774,
  "LER": 31850,
  "LER\u0130": 31859,
  "LER\u0130M\u0130Z": 31866,
  "LER\u0130N": 31874,
  "LES": 31893,
  "LESS": 31917,
  "LET": 31957,
  "LEY": 31992,
  "LF": 32022,
  "LG": 32023,
  "LI": 32033,
  "LIE": 32117,
  "LIG": 32148,
  "LIK": 32193,
  "LIM": 32230,
  "LIN": 32263,
  "LINE": 32275,
  "LING": 32292,
  "LIS": 32337,
  "LITE": 32390,
  "LL": 32464,
  "LLOW": 32472,
  "LM": 32477,
  "LO": 32486,
  "LOCK": 32526,
  "LOG": 32545,
  "LON": 32585,
  "LOW": 32700,
  "LOY": 32707,
  "LP": 32714,
  "LR": 32716,
  "LS": 32718,
  "LT": 32722,
  "LTD": 32725,
  "LU": 32733,
  "LV": 32835,
  "LY": 32840,
  "La": 31146,
  "Lab": 31153,
  "Language": 31332,
  "Large": 31389,
  "Last": 31453,
  "Latin": 31496,
  "Laughs": 31520,
  "Laughter": 31523,
  "Law": 31549,
  "Le": 31627,
  "Lead": 31635,
  "Learn": 31663,
  "Leave": 31679,
  "Legal": 31722,
  "Leninist": 31815,
  "Lesbian": 31896,
  "Let": 31955,
  "Level": 31975,
  "Li": 32031,
  "Library": 32074,
  "Life": 32129,
  "Light": 32154,
  "Like": 32198,
  "Limit": 32242,
  "Line": 32273,
  "Link": 32302,
  "Linux": 32311,
  "List": 32358,
  "Listen": 32369,
  "Literary": 32399,
  "Little": 32413,
  "Live": 32425,
  "Lo": 32484,
  "Load": 32490,
  "Lock": 32524,
  "Log": 32543,
  "London": 32586,
  "Long": 32595,
  "Look": 32606,
  "Lord": 32629,
  "Louis": 32669,
  "Lounge": 32674,
  "Love": 32682,
  "Low": 32698,
  "Ltd": 32723,
  "Lu": 32731,
  "Luc": 32744,
  "Luka": 32775,
  "Luke": 32777,
  "Lumin": 32789,
  "L\u00dc": 32736,
  "L\u00fctfen": 32817,
  "L\u0130": 32037,
  "L\u0130K": 32195,
  "M": 32860,
  "MA": 32866,
  "MAK": 33086,
  "MAN": 33248,
  "MAP": 33362,
  "MAR": 33372,
  "MAS": 33501,
  "MAT": 33576,
  "MAX": 33647,
  "MAZ": 33685,
  "MB": 33696,
  "MC": 33707,
  "MD": 33721,
  "ME": 33732,
  "MED": 33782,
  "MEK": 33855,
  "MEN": 33967,
  "MENT": 33987,
  "MER": 34018,
  "MERKE": 34062,
  "MERKEZ": 34067,
  "MET": 34163,
  "MG": 34305,
  "MHZ": 34307,
  "MHz": 34306,
  "MI": 34312,
  "MIC": 34323,
  "MIN": 34503,
  "MIS": 34604,
  "MISSION": 34671,
  "MIT": 34708,
  "ML": 34780,
  "MM": 34786,
  "MO": 34795,
  "MON": 34933,
  "MONTH": 35000,
  "MP": 35190,
  "MPa": 35193,
  "MR": 35204,
  "MS": 35211,
  "MT": 35219,
  "MU": 35226,
  "MX": 35595,
  "MY": 35601,
  "Ma": 32864,
  "Mac": 32877,
  "Machine": 32893,
  "Made": 32936,
  "Mag": 32965,
  "Magic": 32988,
  "Mail": 33050,
  "Main": 33056,
  "Mainland": 33061,
  "Mak": 33084,
  "Make": 33111,
  "Mal": 33165,
  "Man": 33246,
  "Manufacturer": 33338,
  "Many": 33347,
  "Mar": 33370,
  "March": 33387,
  "Mark": 33419,
  "Market": 33432,
  "Mart": 33477,
  "Martin": 33483,
  "Master": 33555,
  "Mat": 33574,
  "Material": 33593,
  "Matt": 33621,
  "Matta": 33623,
  "Matthew": 33627,
  "Max": 33645,
  "Maximum": 33653,
  "May": 33658,
  "Maybe": 33670,
  "Mbps": 33703,
  "Me": 33730,
  "Media": 33794,
  "Medical": 33804,
  "Meet": 33836,
  "Meetups": 33842,
  "Member": 33923,
  "Men": 33965,
  "Mer": 34016,
  "Merge": 34048,
  "Merhaba": 34053,
  "Message": 34147,
  "Metal": 34177,
  "Mezmur": 34294,
  "Mi": 34310,
  "Michael": 34326,
  "Michel": 34328,
  "Micro": 34337,
  "Microsoft": 34353,
  "Middle": 34361,
  "Mil": 34417,
  "Milestones": 34432,
  "Min": 34501,
  "Mini": 34536,
  "Miss": 34655,
  "Mo": 34793,
  "Mobil": 34802,
  "Mobile": 34806,
  "Model": 34833,
  "Modern": 34857,
  "Mom": 34921,
  "Mon": 34931,
  "Money": 34951,
  "Monitor": 34959,
  "More": 35034,
  "Morning": 35043,
  "Moses": 35065,
  "Most": 35079,
  "Mother": 35092,
  "Motion": 35101,
  "Movie": 35174,
  "Mpa": 35192,
  "Mr": 35202,
  "Mu": 35224,
  "Muhammad": 35297,
  "Multi": 35357,
  "Mus": 35423,
  "Museu": 35440,
  "Music": 35449,
  "Muslim": 35458,
  "Must": 35472,
  "Mutlu": 35536,
  "My": 35599,
  "M\u00fc": 35230,
  "M\u00fchendis": 35306,
  "M\u00fcsl\u00fcman": 35464,
  "M\u00fczik": 35584,
  "M\u00fc\u015fteri": 35479,
  "M\u0130": 34317,
  "M\u0131s\u0131r": 34638,
  "N": 35628,
  "NA": 35634,
  "NAME": 35679,
  "NAN": 35689,
  "NATO": 35764,
  "NB": 35809,
  "NC": 35814,
  "ND": 35824,
  "NE": 35840,
  "NER": 35973,
  "NES": 35998,
  "NESS": 36013,
  "NET": 36022,
  "NEW": 36067,
  "NEY": 36094,
  "NF": 36106,
  "NG": 36111,
  "NI": 36123,
  "NIC": 36131,
  "NIN": 36204,
  "NING": 36214,
  "NJ": 36288,
  "NK": 36290,
  "NN": 36296,
  "NO": 36305,
  "NOR": 36374,
  "NOVA": 36467,
  "NP": 36489,
  "NR": 36491,
  "NS": 36493,
  "NT": 36500,
  "NU": 36514,
  "NX": 36601,
  "NY": 36604,
  "NZ": 36612,
  "Na": 35632,
  "Name": 35677,
  "Nas\u0131l": 35733,
  "National": 35753,
  "Natural": 35768,
  "Nature": 35775,
  "Ne": 35838,
  "Neden": 35876,
  "Neill": 35943,
  "Nerede": 35980,
  "Net": 36020,
  "Network": 36033,
  "Never": 36057,
  "New": 36065,
  "News": 36075,
  "Newsletter": 36079,
  "Next": 36089,
  "Ni": 36121,
  "Night": 36170,
  "Ningxia": 36216,
  "Ni\u00e7in": 36141,
  "No": 36303,
  "Nobody": 36315,
  "Non": 36355,
  "None": 36358,
  "Nor": 36372,
  "Normal": 36383,
  "North": 36401,
  "Not": 36421,
  "Note": 36428,
  "Nothing": 36439,
  "November": 36473,
  "Now": 36481,
  "Nu": 36512,
  "Number": 36554,
  "N\u0130": 36126,
  "O": 36615,
  "OB": 36629,
  "OC": 36701,
  "OD": 36749,
  "ODM": 36821,
  "OE": 36846,
  "OEM": 36848,
  "OG": 36912,
  "OGRAPH": 36943,
  "OH": 37032,
  "OK": 37050,
  "OL": 37138,
  "OLD": 37265,
  "OLOGICAL": 37470,
  "OLOGY": 37475,
  "OM": 37615,
  "OME": 37621,
  "ON": 37655,
  "ONE": 37723,
  "ONG": 37769,
  "OOD": 37863,
  "OOM": 37867,
  "OP": 37877,
  "OPE": 37885,
  "OR": 38016,
  "ORS": 38220,
  "OS": 38283,
  "OSH": 38298,
  "OSS": 38310,
  "OST": 38313,
  "OT": 38323,
  "OTO": 38372,
  "OUND": 38435,
  "OUR": 38440,
  "OUS": 38446,
  "OUT": 38452,
  "OVA": 38492,
  "OX": 38571,
  "Obviously": 36697,
  "Occupational": 36718,
  "Ocean": 36731,
  "October": 36743,
  "Of": 36852,
  "Off": 36857,
  "Office": 36878,
  "Official": 36887,
  "Oh": 37030,
  "Okay": 37056,
  "Okul": 37086,
  "Ol": 37136,
  "Old": 37263,
  "On": 37653,
  "Ona": 37662,
  "Once": 37685,
  "One": 37721,
  "Onlar": 37784,
  "Onlar\u0131": 37792,
  "Onlar\u0131n": 37795,
  "Online": 37814,
  "Only": 37819,
  "Onu": 37834,
  "Onun": 37843,
  "Op": 37875,
  "Open": 37890,
  "Operation": 37922,
  "Option": 37999,
  "Or": 38014,
  "Orada": 38025,
  "Order": 38072,
  "Org": 38092,
  "Organ": 38095,
  "Organic": 38100,
  "Organize": 38131,
  "Original": 38175,
  "Orta": 38225,
  "Other": 38358,
  "Otomatik": 38380,
  "Our": 38438,
  "Out": 38450,
  "Outdoor": 38460,
  "Over": 38503,
  "Oyun": 38650,
  "O\u011flum": 36933,
  "P": 38771,
  "PA": 38777,
  "PAC": 38782,
  "PACK": 38792,
  "PB": 39355,
  "PC": 39359,
  "PCS": 39366,
  "PD": 39368,
  "PDF": 39372,
  "PE": 39378,
  "PER": 39509,
  "PET": 39661,
  "PH": 39698,
  "PI": 39829,
  "PIN": 39913,
  "PL": 40016,
  "PM": 40234,
  "PN": 40236,
  "PO": 40248,
  "POL": 40291,
  "PON": 40398,
  "PORT": 40470,
  "POS": 40501,
  "PP": 40630,
  "PR": 40645,
  "PRESS": 40821,
  "PRINT": 40910,
  "PRO": 40955,
  "PS": 41371,
  "PT": 41423,
  "PU": 41432,
  "PUT": 41571,
  "PV": 41577,
  "PVC": 41581,
  "Pa": 38775,
  "Pacific": 38786,
  "Pack": 38790,
  "Pad": 38808,
  "Page": 38817,
  "Pakistan": 38858,
  "Pan": 38899,
  "Panel": 38914,
  "Paper": 38957,
  "Par": 38965,
  "Para": 38970,
  "Paradise": 38979,
  "Paris": 39058,
  "Park": 39063,
  "Part": 39103,
  "Party": 39158,
  "Pas": 39162,
  "Pass": 39183,
  "Pat": 39218,
  "Paul": 39282,
  "Pay": 39299,
  "Pazar": 39339,
  "Pe": 39376,
  "Peace": 39383,
  "Peki": 39435,
  "People": 39495,
  "Per": 39507,
  "Perfect": 39525,
  "Performance": 39535,
  "Perhaps": 39551,
  "Personal": 39610,
  "PhD": 39721,
  "Phil": 39735,
  "Philip": 39739,
  "Philosophy": 39753,
  "Phone": 39763,
  "Phosphor": 39771,
  "Photo": 39775,
  "Photocopy": 39779,
  "Phys": 39804,
  "Pi": 39827,
  "Picture": 39850,
  "Pieces": 39863,
  "Pilgrim": 39892,
  "Pipe": 39938,
  "Pix": 39992,
  "Place": 40023,
  "Plan": 40048,
  "Plastic": 40112,
  "Plastik": 40118,
  "Play": 40151,
  "Player": 40159,
  "Please": 40185,
  "Plus": 40226,
  "Po": 40246,
  "Point": 40270,
  "Police": 40306,
  "Polis": 40322,
  "Political": 40337,
  "Poly": 40374,
  "Porn": 40451,
  "Port": 40468,
  "Post": 40540,
  "Posta": 40545,
  "Power": 40606,
  "Pre": 40685,
  "President": 40812,
  "Press": 40819,
  "Previous": 40857,
  "Price": 40869,
  "Prince": 40894,
  "Print": 40908,
  "Privacy": 40934,
  "Private": 40939,
  "Pro": 40953,
  "Product": 41022,
  "Professional": 41048,
  "Program": 41086,
  "Proje": 41132,
  "Project": 41137,
  "Prophet": 41226,
  "Protect": 41279,
  "Prov": 41322,
  "Proverbs": 41331,
  "Provisional": 41354,
  "Psalm": 41375,
  "Pu": 41430,
  "Public": 41444,
  "Put": 41569,
  "Q": 41595,
  "QU": 41611,
  "QUE": 41659,
  "Qaeda": 41598,
  "Qu": 41609,
  "Quake": 41621,
  "Quality": 41634,
  "Queen": 41662,
  "Quick": 41690,
  "Qur": 41725,
  "Quran": 41727,
  "R": 41731,
  "RA": 41737,
  "RAB": 41742,
  "RABbin": 41752,
  "RAC": 41761,
  "RAF": 41817,
  "RAIN": 41875,
  "RAL": 41908,
  "RAM": 41916,
  "RAN": 41930,
  "RANGE": 41946,
  "RAS": 41996,
  "RAT": 42011,
  "RAY": 42049,
  "RB": 42058,
  "RC": 42061,
  "RD": 42067,
  "RE": 42073,
  "RED": 42291,
  "REM": 42602,
  "REN": 42652,
  "RES": 42791,
  "RET": 42978,
  "RF": 43104,
  "RG": 43108,
  "RI": 43127,
  "RIES": 43181,
  "RIS": 43240,
  "RIT": 43262,
  "RK": 43299,
  "RL": 43302,
  "RM": 43303,
  "RN": 43310,
  "RNA": 43312,
  "RO": 43318,
  "ROM": 43423,
  "RON": 43448,
  "RP": 43573,
  "RR": 43578,
  "RS": 43587,
  "RT": 43592,
  "RU": 43600,
  "RUN": 43676,
  "RUS": 43695,
  "RV": 43731,
  "RY": 43736,
  "Ra": 41735,
  "Rabb": 41744,
  "Rabbim": 41748,
  "Radio": 41802,
  "Rahman": 41855,
  "Rank": 41953,
  "Ray": 42047,
  "Re": 42071,
  "Read": 42094,
  "Real": 42118,
  "Recommend": 42231,
  "Recruit": 42268,
  "Red": 42289,
  "Redirect": 42315,
  "Reflect": 42365,
  "Reilly": 42489,
  "Related": 42540,
  "Remember": 42621,
  "Research": 42799,
  "Resist": 42862,
  "Responsibilities": 42918,
  "Rev": 43025,
  "Revelation": 43034,
  "Ri": 43125,
  "Right": 43191,
  "Ro": 43316,
  "Road": 43323,
  "Robert": 43342,
  "Rock": 43362,
  "Roll": 43405,
  "Rom": 43421,
  "Roman": 43428,
  "Room": 43465,
  "Rose": 43492,
  "Round": 43532,
  "Rourke": 43536,
  "Royal": 43563,
  "Royce": 43567,
  "Ru": 43598,
  "Ruh": 43631,
  "Run": 43674,
  "Rus": 43693,
  "Russia": 43704,
  "Russian": 43707,
  "Rusya": 43716,
  "Ruzyne": 43730,
  "R\u0130": 43131,
  "S": 43744,
  "SA": 43754,
  "SAF": 43857,
  "SAL": 44070,
  "SAN": 44183,
  "SB": 44586,
  "SC": 44590,
  "SCO": 44703,
  "SD": 44782,
  "SE": 44789,
  "SEC": 44858,
  "SEL": 45118,
  "SER": 45324,
  "SF": 45659,
  "SH": 45666,
  "SHI": 45800,
  "SHIP": 45823,
  "SI": 45950,
  "SIA": 45959,
  "SIL": 46135,
  "SION": 46343,
  "SIS": 46421,
  "SK": 46593,
  "SL": 46645,
  "SM": 46734,
  "SN": 46790,
  "SO": 46823,
  "SOC": 46830,
  "SOFT": 46879,
  "SON": 47022,
  "SP": 47414,
  "SPECT": 47509,
  "SR": 47696,
  "SS": 47702,
  "ST": 47720,
  "STAR": 47827,
  "STER": 47952,
  "STO": 48030,
  "STRUCT": 48220,
  "SU": 48292,
  "SUN": 48496,
  "SUZU": 48900,
  "SWT": 48972,
  "Sa": 43752,
  "Saat": 43763,
  "Sadece": 43846,
  "Safe": 43864,
  "Safety": 43873,
  "Saharan": 43961,
  "Sahi": 43965,
  "Sal": 44068,
  "Sales": 44102,
  "Sam": 44144,
  "San": 44181,
  "Sana": 44188,
  "Sanat": 44193,
  "San\u0131r\u0131m": 44239,
  "Satan": 44397,
  "Sava\u015f": 44464,
  "Save": 44485,
  "Saxon": 44517,
  "Say": 44521,
  "Sayfa": 44537,
  "Sa\u011f": 43883,
  "Sa\u011fl\u0131k": 43942,
  "Sc": 44589,
  "School": 44671,
  "Science": 44686,
  "Score": 44714,
  "Screen": 44742,
  "Script": 44758,
  "Se": 44787,
  "Sea": 44796,
  "Search": 44816,
  "Season": 44826,
  "Second": 44924,
  "Secret": 44933,
  "Section": 44954,
  "Security": 44972,
  "See": 44985,
  "Selam": 45122,
  "Select": 45129,
  "Self": 45142,
  "Semitic": 45185,
  "Semitism": 45186,
  "Sen": 45199,
  "Seni": 45235,
  "Senin": 45238,
  "September": 45312,
  "Ser": 45322,
  "Series": 45365,
  "Serv": 45404,
  "Server": 45417,
  "Service": 45424,
  "Sev": 45492,
  "Sevgili": 45533,
  "Sex": 45597,
  "Seyahat": 45613,
  "Sezon": 45654,
  "Se\u00e7": 44861,
  "Sha": 45669,
  "Shaanxi": 45672,
  "Shall": 45693,
  "Shandong": 45707,
  "Share": 45725,
  "Shaved": 45749,
  "She": 45757,
  "Sheraton": 45790,
  "Shi": 45798,
  "Ship": 45821,
  "Shirt": 45840,
  "Short": 45879,
  "Should": 45897,
  "Show": 45912,
  "Shut": 45936,
  "Si": 45948,
  "Siberian": 45963,
  "Sign": 46053,
  "Silicone": 46158,
  "Silver": 46176,
  "Since": 46249,
  "Single": 46280,
  "Sir": 46350,
  "Site": 46465,
  "Siyah": 46529,
  "Siz": 46547,
  "Size": 46562,
  "Sizin": 46571,
  "Small": 46741,
  "Smart": 46748,
  "Smith": 46770,
  "So": 46821,
  "Social": 46836,
  "Soft": 46877,
  "Sohbet": 46896,
  "Solar": 46931,
  "Some": 46982,
  "Someone": 46992,
  "Something": 46999,
  "Sometimes": 47005,
  "Son": 47020,
  "Sonra": 47041,
  "Sonraki": 47045,
  "Sonu\u00e7": 47058,
  "Sorry": 47133,
  "Soru": 47141,
  "Sosyal": 47209,
  "Source": 47235,
  "South": 47242,
  "Soviet": 47261,
  "Sp": 47412,
  "Space": 47421,
  "Spanish": 47440,
  "Speak": 47462,
  "Special": 47478,
  "Specific": 47495,
  "Speed": 47524,
  "Spor": 47625,
  "Sport": 47633,
  "Spring": 47664,
  "St": 47718,
  "Stainless": 47762,
  "Stand": 47788,
  "Standard": 47793,
  "Star": 47825,
  "Start": 47839,
  "Stat": 47854,
  "State": 47858,
  "Stay": 47898,
  "Steel": 47923,
  "Step": 47942,
  "Stock": 48033,
  "Stop": 48056,
  "Store": 48066,
  "Stream": 48140,
  "Street": 48148,
  "Strong": 48211,
  "Student": 48243,
  "Studio": 48253,
  "Study": 48258,
  "Style": 48282,
  "Su": 48290,
  "Sub": 48305,
  "Success": 48370,
  "Such": 48382,
  "Sufficient": 48425,
  "Summer": 48485,
  "Sun": 48494,
  "Super": 48583,
  "Supplier": 48633,
  "Support": 48644,
  "Surely": 48732,
  "Suriye": 48762,
  "Sustainable": 48871,
  "Sweet": 48932,
  "Sync": 49004,
  "Syria": 49026,
  "System": 49036,
  "S\u00f6yle": 47279,
  "S\u00f6z": 47378,
  "S\u0130": 45956,
  "S\u0130Z": 46550,
  "S\u0131cak": 45969,
  "T": 49047,
  "TA": 49053,
  "TAIN": 49158,
  "TAK": 49168,
  "TAL": 49236,
  "TAN": 49318,
  "TAR": 49457,
  "TB": 49718,
  "TC": 49721,
  "TE": 49731,
  "TEC": 49774,
  "TECH": 49782,
  "TED": 49818,
  "TEK": 49877,
  "TEL": 49939,
  "TEM": 49998,
  "TEN": 50072,
  "TER": 50125,
  "TES": 50236,
  "TEX": 50326,
  "TF": 50352,
  "TH": 50358,
  "THE": 50393,
  "THER": 50427,
  "TI": 50625,
  "TIC": 50640,
  "TIES": 50677,
  "TIM": 50729,
  "TIN": 50748,
  "TING": 50755,
  "TION": 50761,
  "TIR": 50782,
  "TIVE": 50827,
  "TK": 50834,
  "TL": 50835,
  "TM": 50839,
  "TO": 50851,
  "TOM": 50909,
  "TON": 50922,
  "TOP": 50960,
  "TOR": 51049,
  "TP": 51153,
  "TR": 51158,
  "TRA": 51163,
  "TRANS": 51254,
  "TRO": 51473,
  "TRON": 51482,
  "TRY": 51550,
  "TS": 51555,
  "TT": 51563,
  "TU": 51579,
  "TUR": 51668,
  "TURE": 51683,
  "TV": 51850,
  "TY": 51893,
  "TZ": 51921,
  "Ta": 49051,
  "Tabii": 49079,
  "Tak": 49166,
  "Take": 49176,
  "Talk": 49265,
  "Tam": 49278,
  "Tamam": 49282,
  "Tanr\u0131": 49423,
  "Tarih": 49511,
  "Tax": 49699,
  "Te": 49729,
  "Tea": 49735,
  "Teacher": 49740,
  "Team": 49752,
  "Tech": 49780,
  "Technical": 49787,
  "Technology": 49807,
  "Teen": 49847,
  "Tek": 49875,
  "Teknoloji": 49912,
  "Tele": 49944,
  "Telekom\u00fcnikasyon": 49969,
  "Tell": 49991,
  "Temp": 50037,
  "Term": 50163,
  "Test": 50282,
  "Tex": 50324,
  "Te\u015fekk\u00fcr": 50246,
  "Th": 50356,
  "Thank": 50373,
  "Thanks": 50380,
  "That": 50385,
  "The": 50391,
  "Their": 50405,
  "Then": 50414,
  "There": 50437,
  "Therefore": 50444,
  "These": 50460,
  "They": 50468,
  "Things": 50494,
  "Think": 50498,
  "Third": 50508,
  "This": 50519,
  "Thomas": 50523,
  "Those": 50536,
  "Thou": 50539,
  "Three": 50566,
  "Through": 50589,
  "Thus": 50611,
  "Ti": 50623,
  "Ticaret": 50645,
  "Ticari": 50650,
  "Ticket": 50659,
  "Time": 50734,
  "To": 50849,
  "Today": 50861,
  "Together": 50870,
  "Tool": 50944,
  "Tools": 50949,
  "Top": 50958,
  "Torrent": 51076,
  "Total": 51089,
  "Touch": 51097,
  "Track": 51172,
  "Trade": 51188,
  "Trans": 51252,
  "Travel": 51340,
  "Tri": 51412,
  "True": 51521,
  "Trump": 51527,
  "Trust": 51535,
  "Truth": 51543,
  "Tu": 51577,
  "Tube": 51587,
  "Tur": 51666,
  "Turk": 51697,
  "Turkey": 51706,
  "Turkish": 51711,
  "Turn": 51730,
  "Twitter": 51882,
  "Two": 51886,
  "Typ": 51897,
  "Type": 51900,
  "T\u00dc": 51582,
  "T\u00fcm": 51633,
  "T\u00fcrk": 51701,
  "T\u00fcrkiye": 51714,
  "T\u00fcrk\u00e7e": 51703,
  "T\u0130": 50627,
  "T\u0130K": 50702,
  "U": 51924,
  "UA": 51931,
  "UAL": 51935,
  "UB": 51937,
  "UBE": 51940,
  "UC": 51949,
  "UE": 52033,
  "UGH": 52055,
  "UK": 52098,
  "UL": 52112,
  "ULT": 52207,
  "ULU": 52228,
  "UM": 52252,
  "UN": 52307,
  "UND": 52352,
  "UNU": 52581,
  "UP": 52643,
  "UR": 52684,
  "URE": 52701,
  "URU": 52777,
  "US": 52811,
  "USA": 52819,
  "USB": 52823,
  "USD": 52825,
  "USE": 52831,
  "USER": 52843,
  "UST": 52861,
  "USU": 52897,
  "UT": 52908,
  "UV": 52946,
  "UYU": 53084,
  "UZ": 53108,
  "Ukraine": 52104,
  "Ukrayna": 52107,
  "Ultra": 52213,
  "Ulusal": 52237,
  "Uluslararas\u0131": 52243,
  "Umar\u0131m": 52257,
  "Un": 52305,
  "Under": 52360,
  "Unfortunately": 52426,
  "Unit": 52467,
  "United": 52474,
  "Universit": 52489,
  "University": 52502,
  "Unix": 52505,
  "Until": 52573,
  "Up": 52641,
  "Update": 52648,
  "Uploaded": 52666,
  "Use": 52829,
  "User": 52841,
  "Usually": 52903,
  "Uygulama": 53013,
  "Uzun": 53199,
  "V": 53213,
  "VA": 53218,
  "VAC": 53227,
  "VAN": 53322,
  "VC": 53447,
  "VDC": 53449,
  "VE": 53454,
  "VEN": 53488,
  "VER": 53525,
  "VET": 53736,
  "VI": 53755,
  "VIS": 53923,
  "VM": 53992,
  "VO": 53996,
  "VP": 54078,
  "VPN": 54080,
  "VR": 54084,
  "VT": 54088,
  "Vahiy": 53251,
  "Value": 53304,
  "Var": 53339,
  "Various": 53364,
  "Ve": 53452,
  "Vengeance": 53503,
  "Ver": 53523,
  "Verily": 53626,
  "Very": 53723,
  "Vi": 53753,
  "Victor": 53786,
  "Video": 53802,
  "View": 53820,
  "Visa": 53925,
  "Vision": 53935,
  "Vol": 54018,
  "W": 54138,
  "WA": 54143,
  "WAY": 54327,
  "WD": 54333,
  "WE": 54338,
  "WEB": 54373,
  "WHO": 54550,
  "WORD": 54797,
  "WORK": 54806,
  "WOW": 54885,
  "WS": 54934,
  "Wait": 54161,
  "Walk": 54179,
  "Wall": 54189,
  "Want": 54216,
  "War": 54225,
  "Was": 54269,
  "Watch": 54290,
  "Water": 54301,
  "Watt": 54312,
  "Wave": 54316,
  "Way": 54325,
  "We": 54336,
  "Web": 54371,
  "Welcome": 54417,
  "Well": 54432,
  "West": 54455,
  "Western": 54459,
  "What": 54471,
  "Whatever": 54475,
  "When": 54490,
  "Whenever": 54494,
  "Where": 54498,
  "Which": 54514,
  "While": 54521,
  "Whisper": 54535,
  "White": 54541,
  "Who": 54548,
  "Whoever": 54554,
  "Wholesaler": 54562,
  "Why": 54576,
  "Wild": 54618,
  "Will": 54629,
  "William": 54632,
  "Win": 54644,
  "Windows": 54656,
  "Wire": 54686,
  "With": 54715,
  "Without": 54727,
  "Woman": 54758,
  "Women": 54763,
  "Wood": 54783,
  "Word": 54795,
  "Work": 54804,
  "Working": 54818,
  "World": 54835,
  "Would": 54871,
  "Write": 54910,
  "X": 54952,
  "XNUMX": 54974,
  "XT": 54979,
  "XX": 54983,
  "XXX": 54988,
  "Y": 54993,
  "YA": 55000,
  "YAN": 55156,
  "YAT": 55719,
  "YD": 55884,
  "YE": 55896,
  "YIN": 56235,
  "YL": 56269,
  "YM": 56272,
  "YO": 56284,
  "YON": 56367,
  "YOR": 56461,
  "YORUM": 56482,
  "YP": 56522,
  "YR": 56525,
  "YS": 56527,
  "YY": 56757,
  "Ya": 54998,
  "Yahudi": 55047,
  "Yaln\u0131z": 55140,
  "Yaln\u0131zca": 55144,
  "Yani": 55166,
  "Yap": 55220,
  "Yarat\u0131l\u0131\u015f": 55511,
  "Yard\u0131m": 55540,
  "Yaz": 55812,
  "Yaz\u0131": 55841,
  "Ya\u015f": 55589,
  "Ya\u015fam": 55626,
  "Ye": 55894,
  "Yeah": 55901,
  "Year": 55906,
  "Yellow": 55946,
  "Yeni": 55982,
  "Yer": 56012,
  "Yes": 56079,
  "Ye\u015fil": 56084,
  "Yine": 56238,
  "Yo": 56282,
  "Yok": 56302,
  "Yol": 56322,
  "You": 56498,
  "Young": 56503,
  "Your": 56510,
  "Yu": 56536,
  "Yuhanna": 56550,
  "Y\u00fcksek": 56582,
  "Y\u00fcre\u011fi": 56643,
  "Y\u00fcz": 56709,
  "Y\u0131l": 56181,
  "Y\u0131ld\u0131z": 56196,
  "Z": 56760,
  "ZA": 56764,
  "ZE": 56847,
  "ZER": 56881,
  "ZZ": 57055,
  "Zaman": 56781,
  "Zhejiang": 56898,
  "Zone": 56993,
  "[": 72,
  "[10]": 339,
  "[11]": 405,
  "[12]": 447,
  "[13]": 493,
  "[14]": 529,
  "[15]": 563,
  "[16]": 604,
  "[17]": 630,
  "[18]": 656,
  "[19]": 700,
  "[1]": 309,
  "[20]": 863,
  "[21]": 1052,
  "[22]": 1072,
  "[23]": 1091,
  "[24]": 1111,
  "[25]": 1128,
  "[26]": 1158,
  "[27]": 1177,
  "[28]": 1193,
  "[29]": 1208,
  "[2]": 838,
  "[30]": 1247,
  "[31]": 1287,
  "[32]": 1304,
  "[34]": 1335,
  "[35]": 1352,
  "[36]": 1375,
  "[37]": 1388,
  "[38]": 1404,
  "[39]": 1422,
  "[3]": 1226,
  "[40]": 1458,
  "[41]": 1488,
  "[42]": 1500,
  "[43]": 1515,
  "[44]": 1528,
  "[4]": 1440,
  "[5]": 1601,
  "[6]": 1724,
  "[7]": 1827,
  "[8]": 1931,
  "[9]": 2036,
  "]": 73,
  "]>": 74,
  "][": 75,
  "]]": 76,
  "_": 7,
  "__": 8,
  "____": 9,
  "a": 2135,
  "aa": 2141,
  "aaa": 2143,
  "aaaa": 2144,
  "ab": 2147,
  "aba": 2154,
  "abba": 2162,
  "abe": 2182,
  "abi": 2187,
  "abil": 2194,
  "abildi": 2195,
  "abildikleri": 2198,
  "abildi\u011fi": 2196,
  "abildi\u011fini": 2197,
  "abilecek": 2204,
  "abilecekleri": 2205,
  "abilece\u011fi": 2199,
  "abilece\u011fim": 2200,
  "abilece\u011fimiz": 2201,
  "abilece\u011fini": 2202,
  "abilece\u011finiz": 2203,
  "abilen": 2206,
  "abilir": 2207,
  "abilirim": 2209,
  "abiliriz": 2210,
  "abilirler": 2211,
  "abilirsin": 2212,
  "abilirsiniz": 2213,
  "abilities": 2214,
  "ability": 2216,
  "abiliyor": 2220,
  "abiliyorum": 2221,
  "abiliyoruz": 2222,
  "abilme": 2223,
  "abilmek": 2224,
  "abilmektedir": 2225,
  "abilmeniz": 2226,
  "abilmesi": 2227,
  "abilmi\u015f": 2228,
  "abilse": 2229,
  "abilsin": 2230,
  "able": 2234,
  "ably": 2237,
  "abol": 2242,
  "about": 2252,
  "above": 2257,
  "ab\u00fcl": 2289,
  "ab\u0131": 2190,
  "ac": 2297,
  "aca": 2306,
  "acagim": 2324,
  "acak": 2333,
  "acaklar": 2334,
  "acaklard\u0131r": 2335,
  "acaks\u0131n": 2336,
  "acaks\u0131n\u0131z": 2337,
  "acakt\u0131": 2338,
  "acakt\u0131r": 2339,
  "aca\u011f\u0131": 2323,
  "aca\u011f\u0131m": 2325,
  "aca\u011f\u0131m\u0131z": 2326,
  "aca\u011f\u0131m\u0131z\u0131": 2327,
  "aca\u011f\u0131na": 2328,
  "aca\u011f\u0131n\u0131": 2329,
  "aca\u011f\u0131n\u0131z": 2330,
  "aca\u011f\u0131n\u0131z\u0131": 2331,
  "aca\u011f\u0131z": 2332,
  "accept": 2357,
  "access": 2366,
  "according": 2403,
  "account": 2409,
  "ace": 2441,
  "aceae": 2444,
  "ach": 2454,
  "ache": 2455,
  "achi": 2456,
  "aci": 2467,
  "acid": 2474,
  "ack": 2553,
  "acre": 2580,
  "act": 2588,
  "acting": 2598,
  "action": 2601,
  "activate": 2605,
  "activation": 2611,
  "active": 2614,
  "activity": 2624,
  "acular": 2642,
  "acy": 2646,
  "ad": 2647,
  "ada": 2653,
  "adam": 2666,
  "add": 2716,
  "added": 2721,
  "ade": 2746,
  "ader": 2754,
  "adet": 2755,
  "adhesive": 2765,
  "adi": 2768,
  "admin": 2815,
  "ado": 2845,
  "ador": 2857,
  "adult": 2881,
  "adventure": 2903,
  "ae": 2943,
  "aesthetic": 2955,
  "af": 2959,
  "aff": 2969,
  "affe": 2974,
  "after": 3019,
  "ag": 3030,
  "aga": 3037,
  "again": 3056,
  "against": 3061,
  "age": 3066,
  "aged": 3070,
  "ager": 3081,
  "agged": 3084,
  "agging": 3085,
  "agh": 3090,
  "aging": 3098,
  "agne": 3122,
  "ago": 3124,
  "agon": 3126,
  "ah": 3154,
  "ahl": 3168,
  "ai": 3180,
  "aid": 3183,
  "ail": 3188,
  "aine": 3218,
  "air": 3219,
  "aire": 3230,
  "ais": 3244,
  "aj": 3248,
  "ajj": 3259,
  "ak": 3260,
  "aka": 3266,
  "akh": 3279,
  "aki": 3280,
  "aking": 3295,
  "akl\u0131": 3305,
  "akov": 3318,
  "aktif": 3358,
  "aktik": 3361,
  "aku": 3376,
  "ak\u0131": 3281,
  "ak\u0131ll\u0131": 3286,
  "ak\u0131p": 3297,
  "al": 3385,
  "ala": 3392,
  "alan": 3430,
  "album": 3476,
  "alcoholic": 3492,
  "ald": 3494,
  "ale": 3519,
  "aleyh": 3554,
  "ali": 3577,
  "alien": 3591,
  "aligned": 3596,
  "alist": 3655,
  "ality": 3659,
  "alizm": 3670,
  "all": 3679,
  "alla": 3685,
  "allah": 3687,
  "allergenic": 3699,
  "allow": 3718,
  "ally": 3728,
  "almost": 3771,
  "alo": 3774,
  "als": 3798,
  "also": 3800,
  "alt": 3804,
  "alter": 3809,
  "although": 3822,
  "alt\u0131": 3826,
  "alt\u0131n": 3829,
  "always": 3863,
  "al\u0131": 3582,
  "al\u0131k": 3600,
  "al\u0131m": 3604,
  "al\u0131\u015f": 3642,
  "am": 3868,
  "ama": 3875,
  "amad\u0131": 3898,
  "amad\u0131k": 3900,
  "amad\u0131m": 3901,
  "amad\u0131\u011f\u0131": 3899,
  "amam": 3904,
  "amamas\u0131": 3905,
  "amam\u0131\u015f": 3906,
  "amam\u0131\u015ft\u0131": 3907,
  "amam\u0131\u015ft\u0131r": 3908,
  "amayabilir": 3916,
  "amayacak": 3921,
  "amayaca\u011f\u0131": 3917,
  "amayaca\u011f\u0131m": 3918,
  "amayaca\u011f\u0131n\u0131": 3919,
  "amayaca\u011f\u0131n\u0131z": 3920,
  "amayan": 3922,
  "amay\u0131z": 3923,
  "amaz": 3924,
  "amazlar": 3929,
  "amazs\u0131n": 3931,
  "amazs\u0131n\u0131z": 3932,
  "amba": 3934,
  "ambi": 3940,
  "ambo": 3947,
  "ament": 3970,
  "ami": 3988,
  "amid": 3989,
  "amide": 3991,
  "amin": 3992,
  "amine": 3993,
  "amino": 3994,
  "amo": 4008,
  "among": 4009,
  "amp": 4017,
  "amphetamine": 4022,
  "am\u0131yor": 3999,
  "am\u0131yorum": 4000,
  "an": 4036,
  "ana": 4043,
  "anakkale": 4062,
  "analysis": 4081,
  "analytic": 4088,
  "ancak": 4121,
  "ance": 4125,
  "ancies": 4134,
  "ancing": 4135,
  "ancy": 4136,
  "and": 4137,
  "anda": 4143,
  "ander": 4147,
  "andheld": 4151,
  "andra": 4156,
  "andro": 4161,
  "ane": 4171,
  "ang": 4180,
  "angel": 4183,
  "angle": 4197,
  "angular": 4206,
  "angzhou": 4208,
  "ani": 4209,
  "ania": 4214,
  "anic": 4215,
  "anka": 4247,
  "anlar": 4286,
  "anna": 4367,
  "anne": 4369,
  "ano": 4411,
  "another": 4425,
  "ans": 4429,
  "ansiyel": 4432,
  "ansiyon": 4433,
  "ant": 4440,
  "anta": 4443,
  "antalum": 4446,
  "ante": 4453,
  "anti": 4463,
  "ants": 4512,
  "anu": 4515,
  "any": 4520,
  "anya": 4525,
  "anything": 4533,
  "anza": 4541,
  "ao": 4542,
  "ap": 4543,
  "apartheid": 4554,
  "apartments": 4562,
  "ape": 4565,
  "aph": 4567,
  "apillary": 4571,
  "apocalyptic": 4576,
  "app": 4586,
  "application": 4628,
  "appropriate": 4658,
  "approved": 4665,
  "approximately": 4671,
  "apt": 4682,
  "aq": 4687,
  "ar": 4695,
  "ara": 4702,
  "araba": 4709,
  "arak": 4759,
  "arch": 4845,
  "arcinia": 4867,
  "ard": 4869,
  "ardi": 4872,
  "ardiovascular": 4879,
  "ardo": 4880,
  "are": 4882,
  "aret": 4895,
  "ari": 4910,
  "aria": 4916,
  "arian": 4917,
  "aries": 4919,
  "arily": 4920,
  "ario": 4923,
  "arium": 4936,
  "arkada\u015f": 4955,
  "arkada\u015flar\u0131n\u0131zla": 4981,
  "arlar": 4997,
  "arm": 4999,
  "arnish": 5024,
  "aro": 5026,
  "around": 5031,
  "arrow": 5056,
  "ars": 5059,
  "art": 5069,
  "ary": 5151,
  "ar\u0131": 4913,
  "ar\u0131m": 4921,
  "ar\u0131z": 4944,
  "as": 5158,
  "asa": 5166,
  "ase": 5198,
  "ash": 5204,
  "ashi": 5210,
  "ashvili": 5212,
  "asi": 5213,
  "asia": 5220,
  "ask": 5250,
  "asl\u0131nda": 5285,
  "ass": 5304,
  "asse": 5317,
  "assembly": 5324,
  "assi": 5341,
  "asso": 5356,
  "associated": 5361,
  "asta": 5381,
  "astello": 5384,
  "aster": 5385,
  "astic": 5391,
  "astro": 5401,
  "asyon": 5427,
  "asyonu": 5429,
  "as\u0131": 5217,
  "at": 5430,
  "ata": 5437,
  "atch": 5456,
  "ate": 5458,
  "ated": 5461,
  "aternity": 5464,
  "ates": 5465,
  "ath": 5476,
  "ati": 5488,
  "atic": 5492,
  "atif": 5493,
  "atik": 5495,
  "ating": 5508,
  "ation": 5510,
  "ational": 5512,
  "ations": 5513,
  "ative": 5520,
  "ato": 5550,
  "atomic": 5556,
  "ator": 5561,
  "ators": 5565,
  "atory": 5567,
  "atrix": 5568,
  "ats": 5570,
  "atta": 5571,
  "attack": 5578,
  "attle": 5610,
  "atu": 5626,
  "atur": 5627,
  "ature": 5628,
  "at\u00e7\u0131": 5457,
  "at\u00f6r": 5563,
  "at\u00f6rler": 5564,
  "at\u00f6r\u00fc": 5566,
  "at\u0131": 5490,
  "au": 5629,
  "aud": 5636,
  "auer": 5649,
  "augh": 5651,
  "aught": 5652,
  "ault": 5660,
  "aunt": 5661,
  "author": 5680,
  "authorised": 5684,
  "auto": 5699,
  "automatic": 5711,
  "aux": 5729,
  "av": 5731,
  "ava": 5735,
  "availability": 5739,
  "available": 5742,
  "aven": 5759,
  "aver": 5765,
  "average": 5766,
  "avi": 5770,
  "avo": 5781,
  "avu": 5796,
  "aw": 5807,
  "awa": 5809,
  "awaited": 5811,
  "awareness": 5827,
  "away": 5830,
  "awn": 5839,
  "ax": 5842,
  "axis": 5845,
  "ay": 5849,
  "aya": 5855,
  "ayak": 5863,
  "ayd\u0131n": 5893,
  "ayet": 5905,
  "ayn\u0131": 5950,
  "ayr\u0131": 5956,
  "ayr\u0131ca": 5960,
  "ay\u0131": 5917,
  "ay\u0131m": 5921,
  "az": 5996,
  "aza": 6000,
  "azar": 6028,
  "aze": 6031,
  "azi": 6036,
  "azol": 6044,
  "azole": 6045,
  "a\u00e7": 2303,
  "a\u00e7\u0131k": 2483,
  "a\u011fa": 3039,
  "a\u011fa\u00e7": 3044,
  "a\u011fr\u0131": 3136,
  "a\u011f\u0131": 3091,
  "a\u011f\u0131n": 3097,
  "a\u015f": 5164,
  "a\u015fa\u011f\u0131": 5168,
  "a\u015f\u0131r\u0131": 5240,
  "b": 6050,
  "ba": 6054,
  "bab": 6062,
  "baba": 6064,
  "baby": 6088,
  "bach": 6104,
  "back": 6108,
  "backed": 6115,
  "bacter": 6131,
  "bacteria": 6132,
  "bad": 6137,
  "bag": 6146,
  "bah": 6232,
  "bai": 6281,
  "bak": 6286,
  "bal": 6373,
  "balance": 6380,
  "ball": 6411,
  "bal\u0131k": 6395,
  "ban": 6438,
  "band": 6447,
  "bang": 6457,
  "bank": 6466,
  "bar": 6510,
  "bas": 6589,
  "base": 6638,
  "based": 6644,
  "bat": 6843,
  "bath": 6851,
  "bat\u0131": 6862,
  "bau": 6887,
  "bay": 6895,
  "baz": 6924,
  "baz\u0131": 6931,
  "ba\u011f": 6149,
  "ba\u015f": 6594,
  "ba\u015fka": 6698,
  "ba\u015f\u0131": 6656,
  "bb": 6941,
  "bber": 6945,
  "bc": 6948,
  "be": 6955,
  "beam": 6970,
  "bear": 6975,
  "bearing": 6980,
  "beat": 6988,
  "beautiful": 6997,
  "because": 7022,
  "beck": 7038,
  "bed": 7047,
  "bedroom": 7065,
  "bee": 7073,
  "before": 7085,
  "being": 7131,
  "bek": 7137,
  "bel": 7192,
  "believe": 7229,
  "believers": 7235,
  "bell": 7302,
  "below": 7320,
  "ben": 7326,
  "bend": 7338,
  "benim": 7364,
  "ber": 7405,
  "berg": 7417,
  "berger": 7419,
  "berries": 7430,
  "berry": 7433,
  "bert": 7436,
  "bes": 7440,
  "best": 7473,
  "bestowed": 7481,
  "bet": 7482,
  "beth": 7488,
  "better": 7498,
  "between": 7505,
  "bey": 7515,
  "beyaz": 7523,
  "be\u015f": 7442,
  "bi": 7554,
  "bia": 7561,
  "bian": 7562,
  "bic": 7571,
  "bid": 7593,
  "bie": 7599,
  "bies": 7602,
  "big": 7604,
  "bik": 7614,
  "bike": 7616,
  "bil": 7623,
  "bile": 7666,
  "bilgi": 7704,
  "bilgisayar": 7725,
  "bili": 7743,
  "bilim": 7744,
  "bilimci": 7748,
  "bilin": 7757,
  "bilir": 7781,
  "bility": 7794,
  "biliyor": 7795,
  "billion": 7821,
  "bilyal\u0131": 7864,
  "bin": 7866,
  "binding": 7884,
  "bing": 7886,
  "bio": 7895,
  "biotic": 7917,
  "bir": 7919,
  "bird": 7990,
  "biri": 8007,
  "birth": 8075,
  "bis": 8082,
  "bit": 8095,
  "biyo": 8147,
  "biyoloji": 8154,
  "biyotik": 8160,
  "biz": 8161,
  "bizim": 8177,
  "bkz": 8188,
  "bl": 8190,
  "bla": 8194,
  "black": 8196,
  "blast": 8222,
  "ble": 8230,
  "bler": 8241,
  "bli": 8249,
  "blind": 8250,
  "bling": 8254,
  "blo": 8262,
  "block": 8265,
  "blog": 8275,
  "blood": 8295,
  "blown": 8312,
  "blue": 8316,
  "bn": 8333,
  "bo": 8335,
  "board": 8342,
  "boat": 8350,
  "body": 8374,
  "bol": 8411,
  "bolic": 8445,
  "bomb": 8486,
  "bon": 8500,
  "bond": 8506,
  "bone": 8513,
  "boo": 8524,
  "book": 8528,
  "books": 8538,
  "bor": 8557,
  "border": 8569,
  "borg": 8576,
  "born": 8580,
  "borne": 8583,
  "boro": 8586,
  "borough": 8587,
  "bos": 8598,
  "boss": 8619,
  "bot": 8625,
  "both": 8632,
  "bou": 8646,
  "bound": 8652,
  "bour": 8662,
  "bourgeois": 8664,
  "bourne": 8667,
  "bout": 8669,
  "bow": 8672,
  "box": 8680,
  "boy": 8688,
  "boyfriend": 8699,
  "bo\u015f": 8599,
  "bps": 8761,
  "br": 8762,
  "bra": 8768,
  "brahim": 8781,
  "brain": 8785,
  "brand": 8797,
  "bre": 8821,
  "bread": 8825,
  "break": 8829,
  "breaking": 8839,
  "breath": 8848,
  "breeding": 8857,
  "bri": 8871,
  "bridge": 8882,
  "bright": 8893,
  "brit": 8913,
  "bro": 8923,
  "broke": 8942,
  "broken": 8945,
  "brook": 8961,
  "brother": 8970,
  "brown": 8980,
  "bru": 8990,
  "brush": 9001,
  "bs": 9015,
  "bu": 9023,
  "buck": 9034,
  "bug": 9070,
  "bug\u00fcn": 9076,
  "build": 9090,
  "building": 9097,
  "built": 9103,
  "buk": 9106,
  "bul": 9114,
  "bull": 9176,
  "bun": 9281,
  "bund": 9288,
  "bunlar": 9299,
  "bunu": 9314,
  "bur": 9326,
  "burada": 9330,
  "burg": 9364,
  "burger": 9366,
  "burn": 9377,
  "burst": 9399,
  "bury": 9405,
  "bus": 9407,
  "business": 9417,
  "buster": 9428,
  "but": 9432,
  "button": 9449,
  "buy": 9461,
  "by": 9543,
  "bye": 9548,
  "bytes": 9553,
  "b\u00e2": 6060,
  "b\u00ee": 7560,
  "b\u00f6ce\u011fi": 8361,
  "b\u00f6lge": 8420,
  "b\u00f6l\u00fcm": 8460,
  "b\u00f6yle": 8704,
  "b\u00fc": 9029,
  "b\u00fclten": 9203,
  "b\u00fct\u00fcn": 9453,
  "b\u00fcy\u00fck": 9484,
  "c": 9556,
  "ca": 9564,
  "cade": 9600,
  "cai": 9638,
  "caine": 9641,
  "cak": 9643,
  "cake": 9646,
  "cal": 9651,
  "calcul": 9663,
  "cali": 9680,
  "call": 9788,
  "called": 9793,
  "calorie": 9806,
  "cam": 9812,
  "camera": 9830,
  "camp": 9842,
  "can": 9858,
  "cancer": 9883,
  "cap": 9925,
  "capacity": 9941,
  "capitalist": 9954,
  "car": 9982,
  "carbon": 9997,
  "card": 10004,
  "cardi": 10010,
  "care": 10019,
  "carotene": 10054,
  "carton": 10101,
  "casa": 10114,
  "case": 10117,
  "cash": 10122,
  "cast": 10139,
  "cat": 10155,
  "catch": 10175,
  "cate": 10180,
  "catering": 10189,
  "cation": 10202,
  "cause": 10217,
  "ca\u011f\u0131": 9622,
  "cc": 10256,
  "cca": 10259,
  "cchio": 10262,
  "cci": 10263,
  "cco": 10264,
  "ce": 10272,
  "ced": 10289,
  "cek": 10299,
  "cel": 10357,
  "cele": 10361,
  "cell": 10382,
  "cellular": 10388,
  "cellulose": 10392,
  "censored": 10417,
  "cent": 10421,
  "center": 10425,
  "centered": 10430,
  "centr": 10433,
  "central": 10434,
  "centric": 10443,
  "century": 10449,
  "cephal": 10455,
  "cept": 10460,
  "cer": 10461,
  "certain": 10490,
  "certified": 10503,
  "certs": 10507,
  "ces": 10511,
  "cess": 10532,
  "cetic": 10537,
  "ce\u011fi": 10291,
  "cf": 10604,
  "ch": 10608,
  "cha": 10614,
  "chain": 10621,
  "chair": 10626,
  "chan": 10657,
  "chang": 10666,
  "change": 10668,
  "changing": 10677,
  "channel": 10680,
  "char": 10696,
  "character": 10701,
  "charge": 10713,
  "charged": 10716,
  "charging": 10721,
  "chat": 10749,
  "che": 10757,
  "check": 10772,
  "ched": 10783,
  "chel": 10794,
  "chem": 10796,
  "chemical": 10798,
  "chemistry": 10804,
  "chen": 10809,
  "cheng": 10811,
  "chenko": 10815,
  "cher": 10817,
  "ches": 10824,
  "chester": 10829,
  "chet": 10832,
  "chev": 10833,
  "chi": 10839,
  "chia": 10844,
  "chief": 10854,
  "child": 10858,
  "children": 10865,
  "chin": 10877,
  "china": 10880,
  "ching": 10888,
  "chip": 10889,
  "chlor": 10895,
  "chloro": 10900,
  "cho": 10901,
  "christ": 10935,
  "chrom": 10947,
  "chrome": 10948,
  "cht": 10960,
  "chu": 10961,
  "chuckles": 10966,
  "church": 10970,
  "chy": 10976,
  "ci": 10977,
  "cia": 10986,
  "cial": 10988,
  "cible": 10990,
  "cid": 11001,
  "cie": 11010,
  "cient": 11011,
  "cigarette": 11031,
  "cik": 11056,
  "cil": 11140,
  "ciler": 11156,
  "cileri": 11158,
  "cilerin": 11159,
  "cilik": 11166,
  "cili\u011fi": 11164,
  "cin": 11176,
  "cine": 11188,
  "cing": 11192,
  "cio": 11204,
  "cious": 11205,
  "cir": 11211,
  "circ": 11212,
  "circuit": 11218,
  "cisi": 11243,
  "citation": 11248,
  "cite": 11249,
  "citing": 11254,
  "city": 11264,
  "civil": 11276,
  "cize": 11289,
  "ci\u011fim": 11036,
  "ck": 11305,
  "cke": 11307,
  "cken": 11308,
  "cker": 11309,
  "cking": 11310,
  "cky": 11311,
  "cl": 11312,
  "clad": 11319,
  "claim": 11321,
  "class": 11348,
  "cle": 11375,
  "clean": 11377,
  "clear": 11390,
  "click": 11409,
  "client": 11416,
  "climate": 11423,
  "clinic": 11434,
  "clo": 11444,
  "clock": 11447,
  "close": 11455,
  "cloth": 11472,
  "cloud": 11479,
  "club": 11487,
  "clusive": 11494,
  "cm": 11501,
  "co": 11513,
  "coagulant": 11526,
  "coastal": 11534,
  "coat": 11537,
  "coated": 11540,
  "cock": 11553,
  "code": 11611,
  "coding": 11618,
  "coffee": 11623,
  "cogniz": 11633,
  "coin": 11656,
  "col": 11684,
  "cola": 11691,
  "cold": 11693,
  "cole": 11696,
  "coli": 11698,
  "collect": 11719,
  "cological": 11741,
  "colon": 11746,
  "colonial": 11751,
  "color": 11758,
  "colored": 11764,
  "colour": 11772,
  "com": 11783,
  "come": 11807,
  "coming": 11826,
  "comma": 11830,
  "command": 11831,
  "commerce": 11852,
  "commercial": 11856,
  "common": 11876,
  "communica": 11885,
  "communication": 11890,
  "communist": 11900,
  "comp": 11909,
  "company": 11921,
  "compatible": 11943,
  "competitive": 11962,
  "complete": 11980,
  "compliant": 11997,
  "component": 12010,
  "composing": 12019,
  "computer": 12051,
  "con": 12061,
  "conc": 12067,
  "condens": 12115,
  "condition": 12120,
  "conditioned": 12123,
  "conduct": 12135,
  "conf": 12146,
  "confidence": 12160,
  "confident": 12163,
  "config": 12168,
  "connect": 12213,
  "connected": 12217,
  "cons": 12239,
  "conscious": 12245,
  "consequential": 12255,
  "consider": 12264,
  "constitution": 12302,
  "construction": 12313,
  "consuming": 12339,
  "contact": 12345,
  "containing": 12361,
  "content": 12373,
  "continental": 12384,
  "continue": 12392,
  "contract": 12408,
  "contraindication": 12422,
  "control": 12437,
  "controlled": 12442,
  "conv": 12452,
  "convenient": 12456,
  "cookie": 12496,
  "cool": 12505,
  "cop": 12531,
  "copter": 12547,
  "copy": 12548,
  "cor": 12555,
  "cord": 12566,
  "core": 12570,
  "corn": 12578,
  "corp": 12593,
  "corporate": 12596,
  "correct": 12606,
  "corrosion": 12621,
  "cos": 12635,
  "cost": 12645,
  "cott": 12655,
  "could": 12664,
  "count": 12680,
  "counter": 12688,
  "country": 12702,
  "couple": 12710,
  "course": 12726,
  "court": 12733,
  "cover": 12746,
  "cr": 12805,
  "cra": 12810,
  "crack": 12814,
  "craft": 12822,
  "cranial": 12833,
  "cre": 12850,
  "cream": 12855,
  "create": 12860,
  "created": 12864,
  "creating": 12869,
  "creation": 12872,
  "credit": 12888,
  "crete": 12904,
  "crew": 12906,
  "cri": 12909,
  "criminal": 12921,
  "critical": 12938,
  "cro": 12952,
  "croft": 12959,
  "cross": 12968,
  "cry": 13009,
  "crypt": 13013,
  "cryptocurrencies": 13017,
  "ct": 13030,
  "ctic": 13033,
  "ction": 13034,
  "ctiv": 13035,
  "ctive": 13036,
  "ctor": 13037,
  "ctuated": 13038,
  "cture": 13039,
  "cu": 13040,
  "cub": 13048,
  "cuk": 13069,
  "cul": 13073,
  "cular": 13075,
  "cultural": 13085,
  "culture": 13089,
  "cum": 13093,
  "cumhurba\u015fkanl\u0131\u011f\u0131": 13102,
  "cup": 13120,
  "cur": 13127,
  "current": 13145,
  "cus": 13167,
  "custom": 13171,
  "cut": 13191,
  "cutaneous": 13195,
  "cute": 13196,
  "cutting": 13204,
  "cu\u011fu": 13066,
  "cy": 13213,
  "cycl": 13222,
  "cycle": 13224,
  "cyclic": 13228,
  "cylinder": 13235,
  "cz": 13246,
  "c\u00fc": 13046,
  "c\u0131": 10983,
  "c\u0131k": 11057,
  "c\u0131lar": 11142,
  "c\u0131lar\u0131": 11144,
  "c\u0131lar\u0131n": 11145,
  "c\u0131l\u0131k": 11168,
  "c\u0131l\u0131\u011f\u0131": 11165,
  "c\u0131s\u0131": 11244,
  "c\u0131\u011f\u0131m": 11037,
  "d": 13250,
  "dB": 13566,
  "da": 13254,
  "dad": 13260,
  "daha": 13296,
  "dai": 13312,
  "daki": 13336,
  "dal": 13344,
  "dale": 13352,
  "dam": 13369,
  "dan": 13393,
  "dar": 13438,
  "data": 13468,
  "date": 13475,
  "daughter": 13482,
  "day": 13528,
  "dayken": 13559,
  "days": 13561,
  "day\u0131z": 13558,
  "da\u011f": 13268,
  "da\u011f\u0131": 13272,
  "da\u015f": 13463,
  "dd": 13574,
  "ddet": 13576,
  "dding": 13577,
  "ddle": 13578,
  "ddling": 13579,
  "ddy": 13581,
  "de": 13582,
  "dead": 13591,
  "death": 13612,
  "dec": 13633,
  "deck": 13665,
  "ded": 13700,
  "dedi": 13708,
  "deep": 13737,
  "def": 13746,
  "defense": 13769,
  "defined": 13784,
  "definition": 13790,
  "degree": 13933,
  "deki": 13943,
  "del": 13952,
  "dell": 14000,
  "della": 14002,
  "dem": 14011,
  "demand": 14014,
  "demir": 14028,
  "democratic": 14047,
  "demokrat": 14056,
  "den": 14076,
  "deneyebilirsiniz": 14105,
  "density": 14170,
  "dent": 14173,
  "dentifying": 14177,
  "depend": 14198,
  "dependent": 14204,
  "depth": 14245,
  "dequacy": 14252,
  "dequate": 14253,
  "der": 14254,
  "dermal": 14301,
  "ders": 14308,
  "des": 14321,
  "design": 14351,
  "designed": 14358,
  "desk": 14372,
  "desteklemektedir": 14407,
  "destruct": 14434,
  "destructive": 14438,
  "determination": 14484,
  "determined": 14489,
  "develop": 14521,
  "developed": 14525,
  "development": 14532,
  "devlet": 14551,
  "dex": 14587,
  "deydi": 14590,
  "deyim": 14591,
  "deyken": 14598,
  "de\u011fer": 13805,
  "de\u011fil": 13836,
  "de\u011fi\u015ftir": 13897,
  "de\u011fi\u015ftirilebilir": 13910,
  "dge": 14603,
  "dging": 14604,
  "dh": 14605,
  "di": 14610,
  "dia": 14618,
  "dian": 14646,
  "dic": 14660,
  "dicating": 14661,
  "dict": 14667,
  "diction": 14671,
  "did": 14675,
  "die": 14682,
  "dies": 14687,
  "different": 14700,
  "dig": 14717,
  "digi": 14737,
  "digit": 14761,
  "digital": 14764,
  "dik": 14773,
  "dikleri": 14801,
  "diklerini": 14802,
  "dikten": 14808,
  "dik\u00e7e": 14778,
  "dil": 14809,
  "diler": 14830,
  "dim": 14851,
  "dimensional": 14857,
  "din": 14865,
  "dinamik": 14870,
  "ding": 14877,
  "diniz": 14882,
  "dio": 14918,
  "dir": 14938,
  "direct": 14943,
  "directional": 14951,
  "director": 14958,
  "dirler": 14993,
  "dis": 14999,
  "disc": 15052,
  "disciplinary": 15065,
  "discipline": 15066,
  "discover": 15092,
  "display": 15191,
  "distance": 15228,
  "distribut": 15249,
  "div": 15273,
  "diye": 15313,
  "diyor": 15332,
  "diyse": 15343,
  "diyseniz": 15344,
  "di\u011fer": 14720,
  "di\u011fi": 14739,
  "di\u011fim": 14741,
  "di\u011fimi": 14743,
  "di\u011fimiz": 14745,
  "di\u011fin": 14747,
  "di\u011finde": 14752,
  "di\u011finden": 14753,
  "di\u011fine": 14754,
  "di\u011fini": 14755,
  "di\u011finiz": 14757,
  "di\u011finizde": 14760,
  "di\u015f": 15004,
  "djacent": 15364,
  "dle": 15366,
  "dll": 15367,
  "do": 15377,
  "doc": 15385,
  "dock": 15389,
  "document": 15402,
  "doers": 15415,
  "dog": 15421,
  "dol": 15543,
  "dollar": 15592,
  "dom": 15605,
  "domain": 15607,
  "don": 15634,
  "done": 15675,
  "dong": 15702,
  "door": 15767,
  "dor": 15777,
  "dora": 15779,
  "dorf": 15784,
  "dos": 15799,
  "dot": 15830,
  "dou": 15832,
  "double": 15834,
  "doubt": 15839,
  "dow": 15857,
  "down": 15858,
  "download": 15863,
  "do\u011fal": 15430,
  "do\u011fan": 15434,
  "do\u011fru": 15452,
  "do\u011fu": 15474,
  "do\u011fusundaki": 15487,
  "dr": 15889,
  "dra": 15895,
  "dragging": 15903,
  "draw": 15923,
  "dream": 15937,
  "dress": 15948,
  "dri": 15957,
  "drink": 15966,
  "drive": 15975,
  "driven": 15980,
  "driving": 15986,
  "dro": 15989,
  "drom": 15991,
  "drop": 15995,
  "drum": 16012,
  "dry": 16020,
  "ds": 16027,
  "du": 16032,
  "duct": 16056,
  "duction": 16058,
  "due": 16065,
  "duk": 16090,
  "dum": 16102,
  "dun": 16114,
  "dunuz": 16122,
  "dur": 16154,
  "dust": 16257,
  "duty": 16370,
  "du\u011fu": 16076,
  "du\u011fum": 16078,
  "du\u011fumuz": 16081,
  "du\u011funu": 16085,
  "du\u011funuz": 16088,
  "dy": 16523,
  "dynamic": 16532,
  "d\u00ee": 14615,
  "d\u00f6": 15383,
  "d\u00f6n\u00fc\u015f": 15729,
  "d\u00f6n\u00fc\u015ft\u00fcr\u00fclebilir": 15747,
  "d\u00f6rt": 15793,
  "d\u00fc": 16038,
  "d\u00fck": 16091,
  "d\u00fcksiyon": 16098,
  "d\u00fckt\u00f6r": 16099,
  "d\u00fcm": 16103,
  "d\u00fcnya": 16123,
  "d\u00fcr": 16159,
  "d\u00fcz": 16449,
  "d\u00fczen": 16460,
  "d\u00fczenlenmektedir": 16482,
  "d\u00fc\u011f\u00fc": 16077,
  "d\u00fc\u011f\u00fcm": 16079,
  "d\u00fc\u011f\u00fcm\u00fcz": 16082,
  "d\u00fc\u011f\u00fcn\u00fc": 16086,
  "d\u00fc\u011f\u00fcn\u00fcz": 16089,
  "d\u00fc\u015f\u00fck": 16265,
  "d\u00fc\u015f\u00fcn": 16271,
  "d\u00fc\u015f\u00fcnebilirsiniz": 16301,
  "d\u00fdr": 16542,
  "d\u0131": 14616,
  "d\u0131k": 14776,
  "d\u0131klar\u0131": 14798,
  "d\u0131klar\u0131nda": 14799,
  "d\u0131klar\u0131n\u0131": 14800,
  "d\u0131ktan": 14804,
  "d\u0131k\u00e7a": 14777,
  "d\u0131lar": 14812,
  "d\u0131m": 14853,
  "d\u0131n": 14869,
  "d\u0131n\u0131z": 14883,
  "d\u0131r": 14941,
  "d\u0131rlar": 14992,
  "d\u0131ysa": 15341,
  "d\u0131ysan\u0131z": 15342,
  "d\u0131\u011f\u0131": 14740,
  "d\u0131\u011f\u0131m": 14742,
  "d\u0131\u011f\u0131m\u0131": 14744,
  "d\u0131\u011f\u0131m\u0131z": 14746,
  "d\u0131\u011f\u0131n": 14748,
  "d\u0131\u011f\u0131na": 14749,
  "d\u0131\u011f\u0131nda": 14750,
  "d\u0131\u011f\u0131ndan": 14751,
  "d\u0131\u011f\u0131n\u0131": 14756,
  "d\u0131\u011f\u0131n\u0131z": 14758,
  "d\u0131\u011f\u0131n\u0131zda": 14759,
  "d\u0131\u015f\u0131": 15137,
  "e": 16546,
  "ea": 16550,
  "each": 16553,
  "eagle": 16559,
  "eal": 16562,
  "ean": 16563,
  "ear": 16565,
  "earn": 16575,
  "earth": 16586,
  "eas": 16594,
  "ease": 16596,
  "east": 16604,
  "eastern": 16610,
  "easy": 16614,
  "eat": 16618,
  "eater": 16622,
  "eather": 16623,
  "eating": 16624,
  "eau": 16627,
  "eb": 16628,
  "ebe": 16634,
  "ebildi": 16645,
  "ebildikleri": 16647,
  "ebildi\u011fi": 16646,
  "ebilecek": 16653,
  "ebilecekleri": 16654,
  "ebilece\u011fi": 16648,
  "ebilece\u011fim": 16649,
  "ebilece\u011fimiz": 16650,
  "ebilece\u011fini": 16651,
  "ebilece\u011finiz": 16652,
  "ebilen": 16655,
  "ebilir": 16656,
  "ebilirim": 16657,
  "ebiliriz": 16658,
  "ebilirler": 16659,
  "ebilirsin": 16660,
  "ebilirsiniz": 16661,
  "ebiliyor": 16662,
  "ebilme": 16663,
  "ebilmek": 16664,
  "ebilmektedir": 16665,
  "ebilmeniz": 16666,
  "ebilmesi": 16667,
  "ebilmi\u015f": 16668,
  "ebilse": 16669,
  "ebilseydi": 16670,
  "ebilsin": 16671,
  "ec": 16677,
  "ece": 16683,
  "ecek": 16695,
  "ecekler": 16696,
  "eceksin": 16697,
  "eceksiniz": 16698,
  "ecektir": 16699,
  "ece\u011fi": 16685,
  "ece\u011fim": 16686,
  "ece\u011fimiz": 16687,
  "ece\u011fimizi": 16688,
  "ece\u011finden": 16689,
  "ece\u011fine": 16690,
  "ece\u011fini": 16691,
  "ece\u011finiz": 16692,
  "ece\u011finizi": 16693,
  "ece\u011fiz": 16694,
  "ech": 16701,
  "eck": 16704,
  "eco": 16707,
  "economic": 16718,
  "ect": 16734,
  "ectal": 16736,
  "ective": 16738,
  "ectomy": 16739,
  "ector": 16740,
  "ed": 16749,
  "edagogical": 16753,
  "eder": 16807,
  "edge": 16825,
  "edilmi\u015f": 16876,
  "edit": 16894,
  "edu": 16926,
  "educated": 16930,
  "education": 16933,
  "ee": 16944,
  "een": 16949,
  "eering": 16951,
  "ees": 16952,
  "ef": 16954,
  "efendi": 16961,
  "eferred": 16969,
  "eff": 16971,
  "effect": 16972,
  "effective": 16975,
  "efficiency": 16984,
  "efficient": 16987,
  "eg": 16999,
  "ega": 17002,
  "egan": 17003,
  "ego": 17057,
  "eh": 17069,
  "ehir": 17072,
  "ei": 17075,
  "eight": 17078,
  "eira": 17087,
  "either": 17089,
  "ek": 17096,
  "ekler": 17143,
  "ekleyebilirsiniz": 17146,
  "ekonomi": 17157,
  "ekonomik": 17161,
  "eks": 17181,
  "eksi": 17186,
  "eksiyon": 17195,
  "ekt": 17204,
  "ektif": 17205,
  "ektomi": 17206,
  "el": 17208,
  "ela": 17214,
  "ele": 17245,
  "elebi": 17251,
  "elecommunication": 17252,
  "elect": 17253,
  "elected": 17255,
  "election": 17257,
  "electric": 17266,
  "electro": 17277,
  "electronic": 17287,
  "elek": 17301,
  "elektrik": 17303,
  "elektronik": 17315,
  "elestial": 17335,
  "eli": 17349,
  "elia": 17353,
  "elik": 17359,
  "elim": 17360,
  "elinize": 17383,
  "ell": 17394,
  "ella": 17396,
  "elle": 17398,
  "ellen": 17400,
  "eller": 17402,
  "elli": 17412,
  "ello": 17417,
  "els": 17425,
  "em": 17439,
  "ema": 17444,
  "email": 17446,
  "eman": 17450,
  "eme": 17490,
  "emedi": 17493,
  "emedim": 17495,
  "emedi\u011fi": 17494,
  "emem": 17504,
  "ememi\u015f": 17505,
  "ement": 17506,
  "emeyecek": 17520,
  "emeyece\u011fi": 17518,
  "emeyece\u011fini": 17519,
  "emeyen": 17521,
  "emeyiz": 17522,
  "emez": 17523,
  "emezler": 17524,
  "emezsin": 17525,
  "emezsiniz": 17526,
  "emi": 17527,
  "emia": 17528,
  "emitting": 17551,
  "emiyor": 17552,
  "emiyorum": 17553,
  "emon": 17564,
  "emp": 17570,
  "employed": 17587,
  "employment": 17596,
  "emporary": 17599,
  "emptive": 17606,
  "en": 17625,
  "ena": 17631,
  "enabled": 17634,
  "enberg": 17641,
  "enburg": 17642,
  "ence": 17643,
  "enchant": 17645,
  "encies": 17647,
  "encompassing": 17658,
  "ency": 17673,
  "end": 17676,
  "ended": 17685,
  "ender": 17690,
  "ending": 17692,
  "ene": 17730,
  "ened": 17732,
  "ener": 17737,
  "energy": 17743,
  "enerji": 17748,
  "enflamatuar": 17766,
  "eng": 17773,
  "engage": 17776,
  "engine": 17800,
  "engineering": 17808,
  "eni": 17833,
  "ening": 17835,
  "enko": 17850,
  "enler": 17854,
  "enna": 17861,
  "eno": 17862,
  "enos": 17865,
  "ens": 17874,
  "ense": 17876,
  "ension": 17879,
  "ensis": 17880,
  "enstein": 17883,
  "ent": 17895,
  "ente": 17900,
  "enter": 17906,
  "entrepreneurship": 17942,
  "entrifugal": 17946,
  "entry": 17950,
  "ents": 17953,
  "environment": 17958,
  "enza": 17969,
  "enzo": 17971,
  "eo": 17975,
  "eon": 17976,
  "eous": 17978,
  "ep": 17979,
  "eppe": 18005,
  "ept": 18009,
  "eptic": 18010,
  "equal": 18012,
  "equi": 18023,
  "equipped": 18032,
  "er": 18039,
  "era": 18045,
  "erate": 18053,
  "eration": 18054,
  "ere": 18064,
  "erek": 18072,
  "eri": 18082,
  "erie": 18087,
  "erkek": 18113,
  "erken": 18126,
  "erler": 18130,
  "ero": 18139,
  "eronautical": 18142,
  "erra": 18151,
  "error": 18154,
  "ers": 18158,
  "erson": 18160,
  "ert": 18161,
  "ery": 18170,
  "es": 18172,
  "escent": 18195,
  "esco": 18198,
  "escu": 18203,
  "ese": 18205,
  "esh": 18215,
  "esi": 18216,
  "eski": 18238,
  "especially": 18267,
  "ess": 18276,
  "esse": 18280,
  "essential": 18283,
  "est": 18291,
  "establish": 18294,
  "established": 18298,
  "este": 18306,
  "esteem": 18308,
  "ester": 18310,
  "estimate": 18316,
  "estrogen": 18326,
  "et": 18335,
  "eta": 18340,
  "etc": 18343,
  "etch": 18346,
  "eth": 18353,
  "ethanol": 18356,
  "eti": 18375,
  "etic": 18378,
  "etik": 18379,
  "etilen": 18389,
  "etin": 18390,
  "etki": 18394,
  "etme": 18454,
  "etmi\u015f": 18506,
  "etractable": 18520,
  "etrafa": 18521,
  "ets": 18530,
  "ett": 18533,
  "etta": 18534,
  "ette": 18535,
  "etti": 18536,
  "etting": 18561,
  "etto": 18568,
  "etz": 18570,
  "eu": 18571,
  "eur": 18579,
  "euro": 18583,
  "eus": 18600,
  "ev": 18601,
  "eva": 18607,
  "evaluate": 18614,
  "even": 18637,
  "ever": 18651,
  "every": 18658,
  "everything": 18671,
  "evet": 18678,
  "evi": 18682,
  "evich": 18685,
  "evil": 18691,
  "evo": 18740,
  "evre": 18750,
  "evrim": 18762,
  "evsky": 18768,
  "ew": 18770,
  "ex": 18771,
  "example": 18797,
  "except": 18820,
  "exclusive": 18848,
  "exe": 18858,
  "existence": 18899,
  "existent": 18901,
  "existing": 18903,
  "experience": 18944,
  "explain": 18966,
  "express": 19009,
  "expression": 19016,
  "extra": 19047,
  "extraterrestrial": 19058,
  "ey": 19070,
  "eye": 19081,
  "eyed": 19087,
  "eyim": 19094,
  "ez": 19108,
  "e\u00e7ti\u011fimiz": 16737,
  "e\u011fe": 17005,
  "e\u011fer": 17011,
  "e\u011fi": 17018,
  "e\u011fin": 17028,
  "e\u015f": 18177,
  "e\u015fit": 18229,
  "f": 19118,
  "fa": 19122,
  "face": 19156,
  "faced": 19163,
  "facial": 19167,
  "facile": 19170,
  "facing": 19178,
  "fact": 19181,
  "factor": 19184,
  "factory": 19190,
  "fair": 19214,
  "faith": 19224,
  "fak": 19232,
  "fakat": 19233,
  "fal": 19254,
  "fall": 19259,
  "false": 19267,
  "family": 19278,
  "famous": 19284,
  "fan": 19288,
  "fang": 19295,
  "far": 19309,
  "farkl\u0131": 19332,
  "fascist": 19357,
  "fashioned": 19364,
  "fast": 19367,
  "fat": 19379,
  "father": 19386,
  "faz": 19435,
  "fe": 19455,
  "fearing": 19466,
  "feat": 19473,
  "fect": 19490,
  "fed": 19491,
  "fee": 19506,
  "feed": 19510,
  "fei": 19530,
  "fel": 19533,
  "feld": 19538,
  "female": 19553,
  "fen": 19562,
  "feng": 19575,
  "fer": 19578,
  "ference": 19586,
  "ferrous": 19602,
  "fertilize": 19608,
  "fess": 19611,
  "fest": 19612,
  "fet": 19621,
  "ff": 19643,
  "ffa": 19645,
  "ffe": 19646,
  "ffer": 19647,
  "ffluent": 19648,
  "fi": 19649,
  "fiber": 19660,
  "fiction": 19673,
  "field": 19680,
  "fifth": 19690,
  "fight": 19697,
  "fighter": 19701,
  "fighting": 19705,
  "figure": 19710,
  "fik": 19721,
  "fil": 19741,
  "file": 19748,
  "fill": 19766,
  "filled": 19769,
  "film": 19774,
  "filter": 19799,
  "filtration": 19808,
  "fin": 19818,
  "final": 19822,
  "finance": 19829,
  "financial": 19834,
  "find": 19850,
  "fine": 19861,
  "finger": 19865,
  "finished": 19876,
  "finity": 19883,
  "fir": 19890,
  "fire": 19900,
  "firm": 19917,
  "first": 19940,
  "fish": 19953,
  "fit": 19969,
  "fitting": 19977,
  "five": 19984,
  "fix": 19987,
  "fiye": 20011,
  "fiz": 20012,
  "fizik": 20014,
  "fl": 20022,
  "fla": 20026,
  "flame": 20035,
  "flash": 20049,
  "flat": 20055,
  "fle": 20067,
  "fledge": 20072,
  "flex": 20082,
  "flies": 20092,
  "flight": 20094,
  "flo": 20104,
  "floor": 20115,
  "flor": 20122,
  "flow": 20139,
  "flower": 20143,
  "flu": 20153,
  "fluence": 20158,
  "fluoro": 20165,
  "fly": 20170,
  "fo": 20178,
  "fobi": 20185,
  "focus": 20187,
  "focused": 20191,
  "fol": 20200,
  "fold": 20202,
  "folk": 20212,
  "follow": 20218,
  "fon": 20230,
  "food": 20251,
  "foot": 20263,
  "for": 20275,
  "force": 20286,
  "ford": 20295,
  "fore": 20297,
  "forgiving": 20338,
  "form": 20348,
  "formasyon": 20357,
  "format": 20358,
  "formation": 20363,
  "formed": 20369,
  "former": 20371,
  "formerly": 20374,
  "forming": 20377,
  "forward": 20415,
  "fos": 20418,
  "fotokopi": 20446,
  "found": 20451,
  "founder": 20459,
  "four": 20466,
  "fr": 20479,
  "fra": 20483,
  "frame": 20495,
  "fre": 20536,
  "free": 20545,
  "freedom": 20551,
  "freeze": 20558,
  "frequency": 20575,
  "frequent": 20578,
  "fresh": 20584,
  "fri": 20592,
  "fridge": 20599,
  "friend": 20605,
  "friendly": 20609,
  "from": 20628,
  "front": 20634,
  "frost": 20640,
  "fruit": 20648,
  "ft": 20661,
  "fu": 20667,
  "fuck": 20676,
  "fuel": 20686,
  "ful": 20695,
  "full": 20705,
  "fully": 20712,
  "fulness": 20715,
  "fun": 20716,
  "function": 20721,
  "functional": 20724,
  "funded": 20736,
  "fur": 20750,
  "fused": 20770,
  "fusion": 20771,
  "fy": 20788,
  "f\u00e2": 19128,
  "f\u00fczyon": 20784,
  "f\u0131": 19655,
  "g": 20789,
  "ga": 20794,
  "gah": 20809,
  "gal": 20817,
  "game": 20866,
  "gami": 20875,
  "gan": 20880,
  "gang": 20884,
  "gar": 20894,
  "gard": 20909,
  "garde": 20910,
  "gas": 20932,
  "gastrointestinal": 20943,
  "gat": 20944,
  "gate": 20945,
  "gatherer": 20955,
  "gay": 20965,
  "gaz": 20975,
  "ge": 21001,
  "ged": 21133,
  "gee": 21134,
  "gel": 21138,
  "geli\u015f": 21205,
  "geli\u015ftirilmi\u015ftir": 21254,
  "gen": 21306,
  "gence": 21314,
  "gency": 21322,
  "gender": 21323,
  "gene": 21326,
  "genellikle": 21335,
  "general": 21338,
  "generated": 21347,
  "generation": 21351,
  "generative": 21355,
  "genetic": 21364,
  "genetik": 21370,
  "genic": 21374,
  "gent": 21402,
  "ger": 21440,
  "gereksinimlerini": 21535,
  "gerektirmektedir": 21552,
  "geri": 21559,
  "gers": 21582,
  "ger\u00e7ek": 21452,
  "ger\u00e7ekle\u015ftirdi\u011fi": 21477,
  "ger\u00e7ekle\u015ftirildi": 21481,
  "ger\u00e7ekle\u015ftirilen": 21482,
  "ger\u00e7ekle\u015ftirilir": 21483,
  "ges": 21583,
  "gest": 21584,
  "get": 21588,
  "ge\u00e7": 21016,
  "gg": 21674,
  "gger": 21676,
  "ggins": 21677,
  "ggio": 21678,
  "ggle": 21679,
  "ggy": 21680,
  "gh": 21681,
  "gi": 21693,
  "gia": 21701,
  "gic": 21713,
  "gie": 21768,
  "gil": 21778,
  "gin": 21788,
  "ging": 21798,
  "gini": 21801,
  "gio": 21807,
  "gir": 21810,
  "girl": 21850,
  "girlfriend": 21855,
  "git": 21874,
  "give": 21924,
  "giving": 21931,
  "gl": 21972,
  "glass": 21987,
  "gle": 21995,
  "gli": 21998,
  "glia": 21999,
  "gling": 22003,
  "glio": 22004,
  "glo": 22007,
  "global": 22010,
  "globulin": 22019,
  "glu": 22036,
  "glyco": 22043,
  "gmail": 22046,
  "gmatism": 22048,
  "gn": 22052,
  "gna": 22054,
  "gni": 22055,
  "gnition": 22056,
  "gno": 22057,
  "gnos": 22058,
  "go": 22060,
  "god": 22084,
  "going": 22106,
  "goji": 22110,
  "gol": 22129,
  "gold": 22134,
  "gon": 22164,
  "good": 22210,
  "google": 22219,
  "gor": 22223,
  "gos": 22455,
  "got": 22512,
  "gotten": 22522,
  "gov": 22541,
  "government": 22551,
  "governmental": 22554,
  "gr": 22613,
  "gra": 22618,
  "grabbing": 22626,
  "grad": 22632,
  "grade": 22634,
  "graduate": 22643,
  "graf": 22652,
  "grafi": 22655,
  "gram": 22667,
  "gran": 22674,
  "grand": 22677,
  "granul": 22704,
  "graph": 22714,
  "graphic": 22716,
  "graphy": 22724,
  "grave": 22733,
  "gre": 22747,
  "great": 22753,
  "gree": 22764,
  "green": 22773,
  "gren": 22789,
  "gres": 22793,
  "gress": 22794,
  "gri": 22800,
  "grid": 22804,
  "gro": 22829,
  "ground": 22839,
  "group": 22845,
  "grove": 22852,
  "growing": 22856,
  "grown": 22859,
  "growth": 22862,
  "gs": 22883,
  "gsm": 22886,
  "gu": 22892,
  "gua": 22903,
  "guard": 22915,
  "gue": 22962,
  "guesthouse": 22970,
  "gui": 22975,
  "guide": 22981,
  "gul": 23001,
  "gun": 23033,
  "gur": 23115,
  "gus": 23132,
  "gut": 23135,
  "gy": 23204,
  "g\u00e2h": 20810,
  "g\u00f6r": 22225,
  "g\u00f6r\u00fcnt\u00fcleyebilir": 22394,
  "g\u00f6z": 22560,
  "g\u00fc": 22899,
  "g\u00fcc\u00fc": 22949,
  "g\u00fcl": 23003,
  "g\u00fcn": 23036,
  "g\u00fcven": 23142,
  "g\u00fczel": 23191,
  "g\u00fc\u00e7": 22927,
  "g\u0131": 21699,
  "g\u0131n": 21790,
  "g\u0131r": 21813,
  "h": 23211,
  "ha": 23215,
  "hab": 23222,
  "haber": 23223,
  "habi": 23238,
  "hack": 23254,
  "had": 23264,
  "haf": 23278,
  "hafta": 23287,
  "hai": 23303,
  "hair": 23308,
  "haired": 23314,
  "hak": 23319,
  "hal": 23373,
  "hale": 23386,
  "half": 23393,
  "halk": 23413,
  "ham": 23447,
  "han": 23479,
  "hana": 23482,
  "hand": 23484,
  "handed": 23492,
  "handle": 23498,
  "hane": 23512,
  "hanesi": 23514,
  "hang": 23515,
  "hangi": 23520,
  "happy": 23566,
  "har": 23572,
  "hara": 23578,
  "hard": 23601,
  "hari": 23640,
  "harm": 23658,
  "has": 23687,
  "hasta": 23714,
  "hat": 23755,
  "haus": 23815,
  "hausen": 23816,
  "hava": 23818,
  "have": 23846,
  "hawk": 23869,
  "hay": 23874,
  "hayat": 23885,
  "hay\u0131r": 23928,
  "haz": 23955,
  "he": 24011,
  "head": 24017,
  "headed": 24024,
  "health": 24043,
  "hear": 24054,
  "hearing": 24060,
  "heart": 24063,
  "hearted": 24067,
  "heat": 24070,
  "heavy": 24087,
  "hee": 24124,
  "heepskin": 24127,
  "hei": 24130,
  "heim": 24136,
  "hel": 24146,
  "held": 24151,
  "help": 24174,
  "hem": 24187,
  "hen": 24201,
  "heng": 24207,
  "her": 24239,
  "here": 24254,
  "hereinafter": 24263,
  "herhangi": 24266,
  "herkes": 24273,
  "hero": 24287,
  "hether": 24331,
  "hey": 24337,
  "hhh": 24354,
  "hi": 24355,
  "hid": 24376,
  "hide": 24381,
  "hidrat": 24386,
  "hidro": 24387,
  "hidroksi": 24392,
  "high": 24397,
  "hil": 24437,
  "hill": 24442,
  "him": 24449,
  "hin": 24457,
  "hine": 24465,
  "hip": 24471,
  "hir": 24483,
  "hiro": 24491,
  "his": 24501,
  "hisar": 24506,
  "historic": 24547,
  "hit": 24559,
  "hizmet": 24591,
  "hi\u00e7": 24365,
  "hi\u00e7bir": 24369,
  "hl": 24619,
  "hm": 24621,
  "hmm": 24623,
  "hn": 24625,
  "ho": 24626,
  "hoe": 24647,
  "hof": 24648,
  "hold": 24656,
  "holder": 24659,
  "holders": 24662,
  "holding": 24664,
  "hole": 24668,
  "holm": 24685,
  "hom": 24694,
  "home": 24697,
  "hon": 24722,
  "hong": 24735,
  "hoo": 24748,
  "hood": 24749,
  "hop": 24756,
  "hopefully": 24766,
  "hopper": 24773,
  "hopping": 24775,
  "hor": 24776,
  "hora": 24779,
  "hormone": 24788,
  "horn": 24795,
  "horse": 24806,
  "hos": 24813,
  "host": 24843,
  "hostel": 24852,
  "hot": 24865,
  "hotel": 24870,
  "hotele": 24875,
  "hotels": 24876,
  "hotmail": 24879,
  "hou": 24883,
  "hound": 24885,
  "hour": 24886,
  "house": 24892,
  "how": 24910,
  "ho\u015funa": 24864,
  "hp": 24919,
  "hr": 24926,
  "hra": 24929,
  "hri": 24931,
  "ht": 24938,
  "html": 24941,
  "http": 24943,
  "hu": 24948,
  "hua": 24957,
  "huang": 24959,
  "hub": 24964,
  "huh": 24992,
  "hui": 24995,
  "hum": 25025,
  "human": 25028,
  "hun": 25056,
  "hundred": 25059,
  "hur": 25080,
  "hurst": 25092,
  "husband": 25096,
  "hut": 25109,
  "hwa": 25126,
  "hy": 25127,
  "hydr": 25134,
  "hydrate": 25138,
  "hydro": 25143,
  "hydroxy": 25151,
  "hypnotic": 25161,
  "hz": 25175,
  "h\u00e2": 23221,
  "h\u00fc": 24954,
  "i": 25179,
  "ia": 25187,
  "iah": 25192,
  "ial": 25193,
  "ian": 25195,
  "iano": 25198,
  "ians": 25199,
  "ias": 25200,
  "iation": 25201,
  "ib": 25202,
  "iba": 25204,
  "ibb": 25209,
  "ibe": 25210,
  "ibi": 25211,
  "ibility": 25212,
  "ible": 25214,
  "ibly": 25217,
  "ibo": 25221,
  "ic": 25226,
  "ica": 25235,
  "ical": 25239,
  "ically": 25241,
  "icate": 25243,
  "ication": 25244,
  "ice": 25245,
  "ich": 25299,
  "iche": 25300,
  "ichi": 25301,
  "ici": 25302,
  "icide": 25309,
  "ick": 25336,
  "icker": 25337,
  "icle": 25340,
  "ico": 25350,
  "ics": 25358,
  "icular": 25367,
  "id": 25369,
  "ida": 25374,
  "idal": 25377,
  "ide": 25389,
  "idence": 25402,
  "ident": 25403,
  "ides": 25422,
  "idi": 25423,
  "idine": 25425,
  "iding": 25426,
  "idir": 25429,
  "ido": 25433,
  "ie": 25439,
  "ied": 25444,
  "iel": 25446,
  "ien": 25448,
  "ienne": 25449,
  "ient": 25450,
  "ier": 25451,
  "ies": 25452,
  "iest": 25454,
  "iezoelectric": 25455,
  "if": 25456,
  "ife": 25469,
  "iff": 25470,
  "ifi": 25472,
  "ifiable": 25473,
  "ific": 25474,
  "ification": 25475,
  "ified": 25477,
  "ifier": 25478,
  "ifies": 25479,
  "ifikasyon": 25480,
  "ift": 25483,
  "ify": 25485,
  "ifying": 25486,
  "ig": 25487,
  "iga": 25490,
  "igan": 25491,
  "ige": 25492,
  "igen": 25494,
  "iger": 25495,
  "igh": 25496,
  "ight": 25497,
  "igi": 25499,
  "ign": 25503,
  "igo": 25514,
  "igue": 25517,
  "ih": 25518,
  "ii": 25562,
  "iii": 25565,
  "ij": 25568,
  "ija": 25569,
  "ijk": 25570,
  "ik": 25571,
  "ika": 25576,
  "ike": 25578,
  "iki": 25581,
  "iko": 25609,
  "ikrofiber": 25614,
  "il": 25623,
  "ila": 25630,
  "ildi": 25664,
  "ildi\u011fi": 25666,
  "ildi\u011finde": 25669,
  "ildi\u011fini": 25670,
  "ile": 25672,
  "ilebilecek": 25677,
  "ilebilen": 25678,
  "ilebilir": 25679,
  "ilecek": 25682,
  "ilecektir": 25683,
  "ilece\u011fi": 25680,
  "ilece\u011fini": 25681,
  "iled": 25684,
  "ilemeyen": 25685,
  "ilemez": 25686,
  "ilen": 25687,
  "iler": 25688,
  "ilerek": 25690,
  "ilgileniyorsan\u0131z": 25737,
  "ili": 25753,
  "iling": 25761,
  "ilip": 25762,
  "ilir": 25764,
  "ility": 25794,
  "iliyor": 25795,
  "ili\u015fi": 25766,
  "ilk": 25797,
  "illa": 25815,
  "ille": 25816,
  "iller": 25821,
  "illi": 25822,
  "illian": 25823,
  "illion": 25826,
  "illo": 25830,
  "illon": 25831,
  "illus": 25837,
  "ilme": 25856,
  "ilmek": 25857,
  "ilmekte": 25858,
  "ilmektedir": 25859,
  "ilmeli": 25860,
  "ilmelidir": 25861,
  "ilmemi\u015f": 25862,
  "ilmesi": 25863,
  "ilmesine": 25864,
  "ilmesini": 25865,
  "ilmeye": 25866,
  "ilmez": 25867,
  "ilmiyor": 25874,
  "ilmi\u015f": 25869,
  "ilmi\u015ftir": 25872,
  "ilo": 25876,
  "ily": 25882,
  "im": 25883,
  "ima": 25892,
  "image": 25895,
  "imal": 25915,
  "imde": 25929,
  "ime": 25930,
  "iment": 25931,
  "imi": 25935,
  "imin": 25937,
  "imiz": 25942,
  "imizde": 25946,
  "imize": 25947,
  "imizi": 25948,
  "imizin": 25950,
  "immigrant": 25974,
  "imo": 25992,
  "imp": 25994,
  "imperialist": 26026,
  "important": 26050,
  "improve": 26079,
  "in": 26102,
  "ina": 26111,
  "inal": 26119,
  "inate": 26165,
  "inator": 26166,
  "inaudible": 26167,
  "inc": 26170,
  "ince": 26181,
  "inceye": 26204,
  "inch": 26205,
  "inches": 26208,
  "inci": 26210,
  "include": 26225,
  "including": 26232,
  "income": 26237,
  "incomprehensible": 26243,
  "increasing": 26256,
  "inde": 26269,
  "indeki": 26277,
  "inden": 26279,
  "inder": 26285,
  "indirebilirsiniz": 26319,
  "individual": 26336,
  "induced": 26347,
  "industrial": 26352,
  "industry": 26359,
  "ine": 26364,
  "ines": 26374,
  "iness": 26375,
  "infection": 26392,
  "inflamatuar": 26406,
  "inflammatory": 26409,
  "info": 26425,
  "information": 26432,
  "informed": 26438,
  "ing": 26446,
  "inger": 26450,
  "ings": 26464,
  "ington": 26466,
  "ini": 26479,
  "inin": 26483,
  "iniz": 26499,
  "inizde": 26505,
  "inizdeki": 26506,
  "inizden": 26507,
  "inize": 26508,
  "inizi": 26509,
  "inizin": 26511,
  "inizle": 26513,
  "ink": 26530,
  "inn": 26539,
  "inner": 26541,
  "ino": 26555,
  "ins": 26567,
  "insan": 26577,
  "inski": 26637,
  "insky": 26638,
  "inspired": 26650,
  "install": 26656,
  "institut": 26677,
  "insurance": 26711,
  "intensity": 26747,
  "intensive": 26750,
  "inter": 26758,
  "interest": 26780,
  "international": 26805,
  "interpret": 26824,
  "introduce": 26876,
  "invasive": 26896,
  "invaziv": 26898,
  "invest": 26908,
  "in\u00e7": 26172,
  "io": 26947,
  "ion": 26950,
  "ional": 26953,
  "ions": 26954,
  "ios": 26956,
  "ious": 26960,
  "ip": 26963,
  "ipped": 26980,
  "ipper": 26981,
  "ipping": 26982,
  "iq": 26992,
  "ique": 26994,
  "ir": 26995,
  "ira": 27002,
  "ire": 27018,
  "iri": 27021,
  "irim": 27023,
  "iriz": 27027,
  "irken": 27032,
  "irler": 27038,
  "iro": 27041,
  "iron": 27042,
  "irse": 27066,
  "is": 27072,
  "isa": 27090,
  "isation": 27109,
  "ische": 27116,
  "isco": 27125,
  "ise": 27126,
  "ised": 27131,
  "iser": 27133,
  "ish": 27138,
  "isha": 27140,
  "ishi": 27143,
  "isi": 27145,
  "isim": 27173,
  "ising": 27195,
  "islav": 27249,
  "ism": 27315,
  "iso": 27325,
  "ison": 27332,
  "isposable": 27341,
  "iss": 27356,
  "issa": 27359,
  "isse": 27360,
  "issi": 27361,
  "issue": 27366,
  "ist": 27373,
  "ista": 27376,
  "istan": 27379,
  "istanbul": 27380,
  "iste": 27399,
  "ister": 27475,
  "isteyebilirsiniz": 27493,
  "isti": 27503,
  "istic": 27506,
  "istik": 27514,
  "istler": 27544,
  "istor": 27545,
  "ists": 27546,
  "it": 27561,
  "ita": 27569,
  "ital": 27571,
  "itarian": 27582,
  "itch": 27583,
  "ite": 27585,
  "iter": 27591,
  "ites": 27592,
  "itesi": 27593,
  "ith": 27597,
  "iti": 27603,
  "itibar\u0131yla": 27608,
  "itic": 27611,
  "ities": 27613,
  "ition": 27616,
  "itis": 27621,
  "itive": 27622,
  "itler": 27623,
  "ito": 27625,
  "itor": 27626,
  "its": 27627,
  "ittle": 27633,
  "itu": 27634,
  "itude": 27635,
  "ity": 27637,
  "itz": 27639,
  "ium": 27641,
  "ius": 27642,
  "iv": 27643,
  "iva": 27646,
  "ivan": 27647,
  "ivation": 27650,
  "ive": 27651,
  "iver": 27654,
  "ivism": 27656,
  "ivity": 27657,
  "ivo": 27659,
  "ix": 27663,
  "iya": 27665,
  "iyah": 27667,
  "iye": 27668,
  "iyer": 27670,
  "iyet": 27671,
  "iyeti": 27672,
  "iyi": 27673,
  "iyle": 27699,
  "iyo": 27700,
  "iyomedikal": 27701,
  "iyon": 27702,
  "iyor": 27705,
  "iyordu": 27709,
  "iyorlar": 27711,
  "iyorsun": 27714,
  "iyorsunuz": 27716,
  "iyorum": 27718,
  "iyoruz": 27720,
  "iyye": 27722,
  "iz": 27723,
  "izasyon": 27730,
  "izasyonu": 27731,
  "ization": 27732,
  "izat\u00f6r": 27733,
  "ize": 27734,
  "ized": 27735,
  "izer": 27736,
  "izes": 27737,
  "izing": 27743,
  "izleyebilirsiniz": 27768,
  "izm": 27783,
  "izmi": 27784,
  "izmin": 27785,
  "izzy": 27795,
  "i\u00e7": 25229,
  "i\u00e7i": 25304,
  "i\u00e7ilemez": 25310,
  "i\u00e7in": 25319,
  "i\u011fe": 25493,
  "i\u011fi": 25500,
  "i\u015f": 27082,
  "i\u015fi": 27147,
  "i\u015fim": 27176,
  "j": 27796,
  "ja": 27800,
  "jack": 27807,
  "jan": 27846,
  "jana": 27848,
  "jar": 27866,
  "jay": 27880,
  "je": 27884,
  "ject": 27895,
  "jen": 27906,
  "jenerasyon": 27908,
  "jenik": 27913,
  "jer": 27926,
  "jet": 27945,
  "ji": 27960,
  "jiang": 27966,
  "jik": 27972,
  "jin": 27976,
  "jit": 27981,
  "jo": 27982,
  "job": 27989,
  "joint": 28015,
  "jor": 28035,
  "jour": 28045,
  "joy": 28057,
  "jp": 28062,
  "jpg": 28065,
  "ju": 28069,
  "judge": 28079,
  "jun": 28114,
  "just": 28135,
  "k": 28148,
  "kHz": 29490,
  "kW": 31128,
  "ka": 28152,
  "kab": 28161,
  "kadar": 28234,
  "kad\u0131n": 28249,
  "kafa": 28273,
  "kahve": 28321,
  "kai": 28327,
  "kal": 28332,
  "kala": 28337,
  "kale": 28404,
  "kan": 28533,
  "kap": 28590,
  "kar": 28682,
  "kara": 28690,
  "karanl\u0131k": 28713,
  "karbon": 28736,
  "kar\u015f\u0131": 28826,
  "kas": 28892,
  "kat": 28923,
  "kav": 29017,
  "kawa": 29042,
  "kay": 29044,
  "kaya": 29049,
  "kaynak": 29142,
  "kazan": 29176,
  "kazanabilirsiniz": 29181,
  "ka\u00e7": 28195,
  "ke": 29234,
  "ked": 29242,
  "keep": 29250,
  "keeper": 29254,
  "keeping": 29255,
  "kel": 29264,
  "kem": 29285,
  "ken": 29297,
  "kendi": 29307,
  "kent": 29357,
  "ker": 29370,
  "kes": 29382,
  "ket": 29443,
  "key": 29453,
  "kg": 29476,
  "kh": 29479,
  "kha": 29481,
  "khan": 29485,
  "ki": 29491,
  "kia": 29501,
  "kid": 29514,
  "kie": 29529,
  "kil": 29532,
  "kill": 29567,
  "kilometer": 29587,
  "kim": 29592,
  "kimyasal": 29629,
  "kin": 29633,
  "kind": 29638,
  "kinden": 29642,
  "kine": 29649,
  "king": 29651,
  "kini": 29660,
  "kir": 29669,
  "kit": 29796,
  "kitap": 29811,
  "ki\u015fi": 29735,
  "kk": 29897,
  "kki": 29899,
  "kla": 29900,
  "klar\u0131": 29904,
  "klar\u0131nda": 29905,
  "klar\u0131n\u0131": 29906,
  "klasik": 29908,
  "kle": 29915,
  "kleri": 29918,
  "klerinde": 29919,
  "klerini": 29920,
  "kloro": 29937,
  "km": 29938,
  "know": 29975,
  "knowing": 29980,
  "knowledge": 29985,
  "known": 29989,
  "ko": 29995,
  "kol": 30057,
  "kom": 30107,
  "kon": 30168,
  "kong": 30192,
  "kontrol": 30227,
  "konu": 30236,
  "kor": 30368,
  "korku": 30400,
  "kosul": 30485,
  "kou": 30515,
  "kov": 30516,
  "kova": 30517,
  "kovsky": 30524,
  "koy": 30528,
  "koz": 30566,
  "kr": 30573,
  "kra": 30575,
  "kredi": 30603,
  "kro": 30630,
  "ks": 30642,
  "ksiyon": 30644,
  "kta": 30646,
  "ktad\u0131r": 30647,
  "ktan": 30648,
  "kte": 30649,
  "ktedir": 30650,
  "ktedirler": 30651,
  "kten": 30652,
  "kti": 30653,
  "ktir": 30654,
  "ku": 30655,
  "kul": 30689,
  "kullan": 30710,
  "kullan\u0131labilecek": 30751,
  "kullan\u0131lmaktad\u0131r": 30773,
  "kum": 30858,
  "kun": 30872,
  "kur": 30881,
  "kurt": 30950,
  "kuru": 30982,
  "kut": 31060,
  "ku\u015f": 31035,
  "kw": 31127,
  "ky": 31132,
  "k\u00e2": 28158,
  "k\u00e2r": 28687,
  "k\u00e7a": 29230,
  "k\u00e7e": 29231,
  "k\u00f6t\u00fc": 30504,
  "k\u00f6y": 30530,
  "k\u00fc": 30660,
  "k\u00fcl": 30693,
  "k\u00fcler": 30707,
  "k\u00fclt\u00fcr": 30837,
  "k\u00fc\u00e7\u00fck": 30675,
  "k\u0131": 29497,
  "k\u0131nt\u0131": 29663,
  "k\u0131r": 29672,
  "k\u0131rm\u0131z\u0131": 29714,
  "k\u0131z": 29866,
  "k\u0131\u015f": 29723,
  "l": 31140,
  "la": 31144,
  "lab": 31151,
  "label": 31156,
  "labilir": 31164,
  "labor": 31166,
  "lac": 31183,
  "lacak": 31186,
  "lace": 31187,
  "lade": 31199,
  "lady": 31213,
  "lad\u0131": 31201,
  "lad\u0131k": 31209,
  "lad\u0131klar\u0131": 31210,
  "lad\u0131lar": 31211,
  "lad\u0131m": 31212,
  "lad\u0131\u011f\u0131": 31204,
  "lad\u0131\u011f\u0131m\u0131z": 31205,
  "lad\u0131\u011f\u0131nda": 31206,
  "lad\u0131\u011f\u0131n\u0131": 31207,
  "lad\u0131\u011f\u0131n\u0131z": 31208,
  "lag": 31219,
  "lah": 31224,
  "lai": 31226,
  "lain": 31229,
  "lak": 31230,
  "lake": 31231,
  "lam": 31236,
  "lama": 31237,
  "lamad\u0131": 31240,
  "lamak": 31241,
  "lamaktad\u0131r": 31242,
  "lamas\u0131": 31243,
  "lamas\u0131na": 31244,
  "lamaya": 31245,
  "lamay\u0131": 31246,
  "lamp": 31271,
  "lam\u0131yor": 31269,
  "lam\u0131yorum": 31270,
  "lam\u0131\u015f": 31266,
  "lam\u0131\u015ft\u0131": 31267,
  "lam\u0131\u015ft\u0131r": 31268,
  "lan": 31275,
  "lanabilecek": 31281,
  "lanabilir": 31282,
  "lanacak": 31285,
  "lanacakt\u0131r": 31286,
  "lanaca\u011f\u0131": 31283,
  "lanaca\u011f\u0131n\u0131": 31284,
  "lanamaz": 31287,
  "lanan": 31288,
  "lanarak": 31289,
  "lance": 31291,
  "land": 31293,
  "lander": 31298,
  "lands": 31318,
  "land\u0131": 31300,
  "land\u0131rd\u0131": 31305,
  "land\u0131rma": 31314,
  "land\u0131rmak": 31315,
  "land\u0131r\u0131c\u0131": 31306,
  "land\u0131r\u0131ld\u0131": 31307,
  "land\u0131r\u0131lma": 31309,
  "land\u0131r\u0131lmas\u0131": 31310,
  "land\u0131r\u0131lm\u0131\u015f": 31311,
  "land\u0131r\u0131l\u0131r": 31308,
  "land\u0131r\u0131r": 31312,
  "land\u0131r\u0131yor": 31313,
  "land\u0131\u011f\u0131": 31301,
  "land\u0131\u011f\u0131nda": 31302,
  "land\u0131\u011f\u0131n\u0131": 31303,
  "lane": 31322,
  "lang": 31327,
  "language": 31330,
  "lanma": 31345,
  "lanmad\u0131": 31346,
  "lanmak": 31347,
  "lanmakta": 31348,
  "lanmaktad\u0131r": 31349,
  "lanmal\u0131d\u0131r": 31350,
  "lanmam\u0131\u015f": 31351,
  "lanmas\u0131": 31352,
  "lanmas\u0131na": 31353,
  "lanmas\u0131n\u0131": 31354,
  "lanmaya": 31355,
  "lanmay\u0131": 31356,
  "lanmaz": 31357,
  "lanm\u0131yor": 31361,
  "lanm\u0131\u015f": 31358,
  "lanm\u0131\u015ft\u0131": 31359,
  "lanm\u0131\u015ft\u0131r": 31360,
  "lant\u0131": 31365,
  "lan\u0131nca": 31337,
  "lan\u0131p": 31338,
  "lan\u0131r": 31339,
  "lan\u0131rken": 31340,
  "lan\u0131rsa": 31341,
  "lan\u0131yor": 31342,
  "lan\u0131yordu": 31343,
  "lap": 31368,
  "lapse": 31372,
  "lar": 31375,
  "lara": 31378,
  "lararas\u0131": 31380,
  "larca": 31381,
  "larda": 31382,
  "lardaki": 31383,
  "lardan": 31384,
  "lard\u0131": 31385,
  "lard\u0131r": 31386,
  "large": 31387,
  "largest": 31393,
  "larken": 31427,
  "larla": 31428,
  "larsa": 31431,
  "lar\u0131": 31396,
  "lar\u0131d\u0131r": 31397,
  "lar\u0131m": 31398,
  "lar\u0131mdan": 31399,
  "lar\u0131mla": 31410,
  "lar\u0131m\u0131": 31400,
  "lar\u0131m\u0131n": 31401,
  "lar\u0131m\u0131z": 31403,
  "lar\u0131m\u0131za": 31404,
  "lar\u0131m\u0131zda": 31405,
  "lar\u0131m\u0131zdan": 31406,
  "lar\u0131m\u0131zla": 31409,
  "lar\u0131m\u0131z\u0131": 31407,
  "lar\u0131m\u0131z\u0131n": 31408,
  "lar\u0131n": 31412,
  "lar\u0131na": 31413,
  "lar\u0131nda": 31414,
  "lar\u0131ndaki": 31415,
  "lar\u0131ndan": 31416,
  "lar\u0131n\u0131": 31417,
  "lar\u0131n\u0131n": 31418,
  "lar\u0131n\u0131z": 31419,
  "lar\u0131n\u0131za": 31420,
  "lar\u0131n\u0131zda": 31421,
  "lar\u0131n\u0131zdan": 31422,
  "lar\u0131n\u0131zla": 31425,
  "lar\u0131n\u0131z\u0131": 31423,
  "lar\u0131n\u0131z\u0131n": 31424,
  "lar\u0131yla": 31426,
  "las": 31434,
  "lash": 31443,
  "last": 31451,
  "lasting": 31462,
  "lasyon": 31476,
  "lat": 31477,
  "late": 31479,
  "later": 31483,
  "lateral": 31486,
  "latin": 31495,
  "lation": 31501,
  "latma": 31504,
  "latt\u0131": 31508,
  "lat\u00f6r": 31505,
  "lat\u0131c\u0131": 31493,
  "lau": 31512,
  "laud": 31514,
  "laughs": 31519,
  "laughter": 31521,
  "launch": 31524,
  "lav": 31540,
  "law": 31547,
  "lax": 31562,
  "lay": 31563,
  "layabilecek": 31569,
  "layabilece\u011fi": 31567,
  "layabilece\u011finiz": 31568,
  "layabilir": 31570,
  "layabilirim": 31571,
  "layabiliriz": 31572,
  "layabilirsiniz": 31573,
  "layabiliyor": 31574,
  "layabilme": 31575,
  "layacak": 31580,
  "layacakt\u0131r": 31581,
  "layaca\u011f\u0131": 31576,
  "layaca\u011f\u0131m": 31577,
  "layaca\u011f\u0131n\u0131": 31578,
  "layaca\u011f\u0131z": 31579,
  "layal\u0131m": 31582,
  "layamad\u0131": 31583,
  "layamad\u0131\u011f\u0131": 31584,
  "layamam": 31585,
  "layamaz": 31586,
  "layamazs\u0131n\u0131z": 31587,
  "layam\u0131yor": 31588,
  "layan": 31589,
  "layarak": 31590,
  "layay\u0131m": 31591,
  "layer": 31592,
  "lay\u0131c\u0131": 31596,
  "lay\u0131c\u0131s\u0131": 31597,
  "lay\u0131n": 31599,
  "lay\u0131p": 31601,
  "la\u011f\u0131": 31221,
  "la\u015f": 31437,
  "la\u015facak": 31439,
  "la\u015fan": 31440,
  "la\u015fma": 31447,
  "la\u015fmas\u0131": 31448,
  "la\u015fmaya": 31449,
  "la\u015fm\u0131\u015f": 31450,
  "la\u015ft\u0131": 31456,
  "la\u015ft\u0131rabilir": 31464,
  "la\u015ft\u0131rd\u0131": 31465,
  "la\u015ft\u0131rma": 31473,
  "la\u015ft\u0131rmak": 31474,
  "la\u015ft\u0131r\u0131c\u0131": 31466,
  "la\u015ft\u0131r\u0131ld\u0131": 31467,
  "la\u015ft\u0131r\u0131ld\u0131\u011f\u0131nda": 31468,
  "la\u015ft\u0131r\u0131lmas\u0131": 31469,
  "la\u015ft\u0131r\u0131lm\u0131\u015f": 31470,
  "la\u015ft\u0131r\u0131r": 31471,
  "la\u015ft\u0131r\u0131yor": 31472,
  "la\u015ft\u0131\u011f\u0131": 31458,
  "la\u015ft\u0131\u011f\u0131n\u0131": 31459,
  "la\u015f\u0131r": 31445,
  "la\u015f\u0131yor": 31446,
  "lb": 31611,
  "lberg": 31613,
  "lc": 31615,
  "ld": 31620,
  "lder": 31622,
  "ldu\u011fu": 31624,
  "le": 31625,
  "lea": 31631,
  "lead": 31633,
  "leader": 31637,
  "leading": 31644,
  "league": 31650,
  "learn": 31661,
  "learning": 31667,
  "lebilir": 31686,
  "lecommunications": 31688,
  "lectromechanical": 31689,
  "lectrostatic": 31690,
  "led": 31695,
  "ledi": 31701,
  "ledik": 31705,
  "ledikleri": 31706,
  "ledim": 31707,
  "ledi\u011fi": 31702,
  "ledi\u011fimiz": 31703,
  "ledi\u011fini": 31704,
  "lee": 31708,
  "left": 31711,
  "leg": 31715,
  "legal": 31720,
  "legged": 31730,
  "leigh": 31751,
  "lektrostatik": 31758,
  "lem": 31759,
  "leme": 31761,
  "lemek": 31763,
  "lement": 31764,
  "lemesi": 31765,
  "lemeye": 31766,
  "lemi\u015f": 31767,
  "lemi\u015ftir": 31768,
  "len": 31772,
  "lena": 31775,
  "lendi": 31779,
  "lendikten": 31783,
  "lendir": 31785,
  "lendirdi": 31786,
  "lendiren": 31787,
  "lendirici": 31788,
  "lendirilir": 31789,
  "lendirilmemi\u015f": 31790,
  "lendirilmesi": 31791,
  "lendirilmi\u015f": 31792,
  "lendirilmi\u015ftir": 31793,
  "lendirir": 31794,
  "lendiriyor": 31795,
  "lendirme": 31796,
  "lendirmek": 31797,
  "lendi\u011fi": 31780,
  "lendi\u011finde": 31781,
  "lendi\u011fini": 31782,
  "lene": 31798,
  "lenebilecek": 31799,
  "lenebilir": 31800,
  "lenecek": 31803,
  "lenecektir": 31804,
  "lenece\u011fi": 31801,
  "lenece\u011fini": 31802,
  "lenemez": 31805,
  "lenen": 31806,
  "lenerek": 31807,
  "length": 31809,
  "lenip": 31816,
  "lenir": 31817,
  "leniyor": 31818,
  "lenme": 31819,
  "lenmek": 31820,
  "lenmekte": 31821,
  "lenmektedir": 31822,
  "lenmelidir": 31823,
  "lenmemi\u015f": 31824,
  "lenmesi": 31825,
  "lenmesine": 31826,
  "lenmesini": 31827,
  "lenmeye": 31828,
  "lenmiyor": 31832,
  "lenmi\u015f": 31829,
  "lenmi\u015fti": 31830,
  "lenmi\u015ftir": 31831,
  "ler": 31849,
  "leraras\u0131": 31851,
  "lerde": 31852,
  "lerdeki": 31853,
  "lerden": 31854,
  "lerdi": 31855,
  "lerdir": 31856,
  "lere": 31857,
  "leri": 31858,
  "leridir": 31860,
  "lerim": 31861,
  "lerimden": 31862,
  "lerimi": 31863,
  "lerimin": 31864,
  "lerimiz": 31865,
  "lerimizde": 31867,
  "lerimizden": 31868,
  "lerimize": 31869,
  "lerimizi": 31870,
  "lerimizin": 31871,
  "lerimizle": 31872,
  "lerin": 31873,
  "lerinde": 31875,
  "lerindeki": 31876,
  "lerinden": 31877,
  "lerine": 31878,
  "lerini": 31879,
  "lerinin": 31880,
  "leriniz": 31881,
  "lerinizde": 31882,
  "lerinizden": 31883,
  "lerinize": 31884,
  "lerinizi": 31885,
  "lerinizin": 31886,
  "lerinizle": 31887,
  "leriyle": 31888,
  "lerle": 31889,
  "lerse": 31890,
  "les": 31891,
  "less": 31914,
  "lessly": 31920,
  "lessness": 31921,
  "let": 31953,
  "letme": 31959,
  "lets": 31961,
  "lev": 31970,
  "level": 31973,
  "lex": 31988,
  "ley": 31991,
  "leyebilecek": 31998,
  "leyebilece\u011fi": 31994,
  "leyebilece\u011fini": 31995,
  "leyebilece\u011finiz": 31996,
  "leyebilece\u011finizi": 31997,
  "leyebilir": 31999,
  "leyebilirsiniz": 32000,
  "leyebilme": 32001,
  "leyecek": 32005,
  "leyecektir": 32006,
  "leyece\u011fi": 32002,
  "leyece\u011fini": 32003,
  "leyece\u011fiz": 32004,
  "leyemez": 32007,
  "leyen": 32008,
  "leyerek": 32009,
  "leyici": 32010,
  "leyin": 32011,
  "leyip": 32012,
  "le\u015f": 31894,
  "le\u015febilir": 31898,
  "le\u015fecek": 31899,
  "le\u015fen": 31900,
  "le\u015ferek": 31901,
  "le\u015fik": 31902,
  "le\u015fim": 31903,
  "le\u015fir": 31905,
  "le\u015fiyor": 31906,
  "le\u015fme": 31908,
  "le\u015fmesi": 31909,
  "le\u015fmesine": 31910,
  "le\u015fmesini": 31911,
  "le\u015fmeye": 31912,
  "le\u015fmi\u015f": 31913,
  "le\u015fti": 31928,
  "le\u015ftir": 31931,
  "le\u015ftirdi": 31932,
  "le\u015ftirdi\u011fi": 31933,
  "le\u015ftirebilir": 31934,
  "le\u015ftirecek": 31935,
  "le\u015ftiren": 31936,
  "le\u015ftirerek": 31937,
  "le\u015ftirici": 31938,
  "le\u015ftirildi": 31939,
  "le\u015ftirildi\u011finde": 31940,
  "le\u015ftirilebilir": 31941,
  "le\u015ftirilen": 31942,
  "le\u015ftirilir": 31943,
  "le\u015ftirilme": 31944,
  "le\u015ftirilmesi": 31945,
  "le\u015ftirilmi\u015f": 31946,
  "le\u015ftirilmi\u015ftir": 31947,
  "le\u015ftirir": 31948,
  "le\u015ftiriyor": 31949,
  "le\u015ftirme": 31950,
  "le\u015ftirmek": 31951,
  "le\u015ftirmeye": 31952,
  "le\u015fti\u011fi": 31929,
  "le\u015fti\u011fini": 31930,
  "lf": 32021,
  "lga": 32025,
  "lgili": 32028,
  "li": 32029,
  "lia": 32038,
  "lian": 32045,
  "liance": 32046,
  "lib": 32050,
  "liberal": 32054,
  "lic": 32078,
  "lica": 32079,
  "lice": 32080,
  "lich": 32090,
  "licit": 32091,
  "lick": 32092,
  "lide": 32097,
  "lider": 32098,
  "liding": 32110,
  "lidir": 32111,
  "lidirler": 32113,
  "lie": 32114,
  "lier": 32119,
  "lies": 32120,
  "liev": 32125,
  "life": 32127,
  "lift": 32138,
  "lifting": 32142,
  "lig": 32145,
  "light": 32152,
  "ligi": 32169,
  "lik": 32192,
  "like": 32196,
  "likle": 32211,
  "likler": 32212,
  "likleri": 32213,
  "liklerini": 32214,
  "likte": 32217,
  "likten": 32218,
  "liler": 32223,
  "lilik": 32225,
  "lim": 32228,
  "limit": 32240,
  "limited": 32247,
  "lin": 32261,
  "lina": 32264,
  "linda": 32267,
  "line": 32271,
  "linear": 32276,
  "liner": 32282,
  "lines": 32285,
  "liness": 32288,
  "ling": 32290,
  "lining": 32298,
  "link": 32300,
  "lio": 32313,
  "lip": 32318,
  "lipo": 32322,
  "lique": 32327,
  "liquid": 32328,
  "lir": 32333,
  "lis": 32336,
  "lisans": 32340,
  "lish": 32353,
  "lisin": 32354,
  "lisiniz": 32355,
  "list": 32356,
  "listed": 32362,
  "lit": 32386,
  "lite": 32388,
  "liter": 32392,
  "little": 32411,
  "lity": 32417,
  "litz": 32420,
  "live": 32423,
  "lived": 32428,
  "liver": 32432,
  "living": 32438,
  "lix": 32441,
  "liydi": 32442,
  "liyim": 32444,
  "liyiz": 32446,
  "liyor": 32448,
  "liyordu": 32450,
  "liyorum": 32454,
  "liyoruz": 32456,
  "li\u011fe": 32151,
  "li\u011fi": 32171,
  "li\u011fim": 32173,
  "li\u011fimiz": 32174,
  "li\u011fin": 32177,
  "li\u011finde": 32181,
  "li\u011finden": 32182,
  "li\u011fine": 32183,
  "li\u011fini": 32184,
  "li\u011finin": 32186,
  "li\u011finiz": 32188,
  "li\u011finizi": 32189,
  "li\u011fiyle": 32191,
  "lk": 32462,
  "ll": 32463,
  "lla": 32465,
  "llactionhost": 32466,
  "llah": 32467,
  "lle": 32470,
  "lli": 32471,
  "lls": 32474,
  "lly": 32475,
  "ll\u00e2h": 32468,
  "lm": 32476,
  "lma": 32478,
  "lmas\u0131": 32479,
  "lmaz": 32480,
  "lmesi": 32481,
  "lo": 32482,
  "load": 32488,
  "lob": 32501,
  "local": 32509,
  "location": 32517,
  "locator": 32521,
  "lock": 32522,
  "log": 32541,
  "logged": 32547,
  "logger": 32549,
  "logging": 32550,
  "logic": 32552,
  "logical": 32555,
  "logis": 32559,
  "logue": 32569,
  "logy": 32570,
  "loji": 32572,
  "lom": 32582,
  "lon": 32584,
  "long": 32593,
  "longside": 32602,
  "loo": 32603,
  "look": 32604,
  "looking": 32610,
  "loop": 32616,
  "lop": 32623,
  "lor": 32625,
  "lord": 32627,
  "los": 32634,
  "lose": 32636,
  "loss": 32643,
  "lost": 32647,
  "lot": 32651,
  "lou": 32661,
  "lough": 32667,
  "lov": 32678,
  "lova": 32679,
  "love": 32680,
  "lover": 32689,
  "loving": 32693,
  "low": 32696,
  "lo\u011fu": 32568,
  "lp": 32713,
  "ls": 32717,
  "lt": 32720,
  "lton": 32728,
  "lu": 32729,
  "lub": 32737,
  "lubricating": 32742,
  "luck": 32751,
  "luk": 32773,
  "lullah": 32782,
  "lum": 32783,
  "lumin": 32788,
  "lumina": 32790,
  "lus": 32808,
  "lusion": 32810,
  "lute": 32814,
  "lution": 32822,
  "lux": 32824,
  "luyor": 32831,
  "lu\u011fa": 32762,
  "lu\u011fu": 32766,
  "lu\u011fun": 32768,
  "lu\u011funu": 32770,
  "lv": 32834,
  "lva": 32836,
  "ly": 32838,
  "lyn": 32848,
  "lysis": 32857,
  "l\u00e2": 31150,
  "l\u00ee": 32035,
  "l\u00fc": 32735,
  "l\u00fck": 32774,
  "l\u00fcyor": 32832,
  "l\u00fc\u011fe": 32763,
  "l\u00fc\u011f\u00fc": 32767,
  "l\u00fc\u011f\u00fcn": 32769,
  "l\u00fc\u011f\u00fcn\u00fc": 32771,
  "l\u00fd": 32841,
  "l\u0131": 32036,
  "l\u0131d\u0131r": 32112,
  "l\u0131k": 32194,
  "l\u0131kla": 32208,
  "l\u0131klar": 32209,
  "l\u0131klar\u0131": 32210,
  "l\u0131kta": 32215,
  "l\u0131ktan": 32216,
  "l\u0131kt\u0131r": 32219,
  "l\u0131lar": 32221,
  "l\u0131lar\u0131n": 32222,
  "l\u0131yd\u0131": 32443,
  "l\u0131yor": 32449,
  "l\u0131yordu": 32451,
  "l\u0131yorlar": 32452,
  "l\u0131yorsun": 32453,
  "l\u0131yorum": 32455,
  "l\u0131yoruz": 32457,
  "l\u0131y\u0131m": 32445,
  "l\u0131y\u0131z": 32447,
  "l\u0131\u011fa": 32149,
  "l\u0131\u011f\u0131": 32172,
  "l\u0131\u011f\u0131m\u0131z": 32175,
  "l\u0131\u011f\u0131m\u0131z\u0131": 32176,
  "l\u0131\u011f\u0131n": 32178,
  "l\u0131\u011f\u0131na": 32179,
  "l\u0131\u011f\u0131ndan": 32180,
  "l\u0131\u011f\u0131n\u0131": 32185,
  "l\u0131\u011f\u0131n\u0131n": 32187,
  "l\u0131\u011f\u0131n\u0131z\u0131": 32190,
  "m": 32858,
  "mAh": 33012,
  "ma": 32862,
  "mac": 32875,
  "machine": 32891,
  "mad": 32913,
  "madan": 32923,
  "made": 32934,
  "mad\u0131": 32950,
  "mad\u0131m": 32951,
  "mag": 32963,
  "magic": 32986,
  "magnet": 32997,
  "magnetic": 33000,
  "mah": 33010,
  "mai": 33041,
  "maid": 33043,
  "mail": 33048,
  "main": 33054,
  "major": 33079,
  "mak": 33083,
  "make": 33109,
  "maker": 33116,
  "makers": 33119,
  "making": 33142,
  "makla": 33146,
  "maks\u0131z\u0131n": 33152,
  "makta": 33153,
  "maktad\u0131r": 33154,
  "maktad\u0131rlar": 33155,
  "maktan": 33156,
  "maktayd\u0131": 33157,
  "makt\u0131r": 33158,
  "mal": 33163,
  "malar": 33170,
  "malar\u0131": 33171,
  "male": 33180,
  "mal\u0131": 33189,
  "mal\u0131d\u0131r": 33192,
  "mal\u0131s\u0131n": 33195,
  "mal\u0131s\u0131n\u0131z": 33196,
  "mal\u0131yd\u0131": 33197,
  "mal\u0131yd\u0131m": 33198,
  "mal\u0131y\u0131m": 33208,
  "mal\u0131y\u0131z": 33209,
  "mam": 33233,
  "mam\u0131z": 33239,
  "mam\u0131\u015f": 33238,
  "man": 33244,
  "management": 33257,
  "mani": 33284,
  "mania": 33287,
  "mann": 33310,
  "manship": 33316,
  "manufacturer": 33336,
  "many": 33345,
  "man\u0131": 33286,
  "man\u0131n": 33299,
  "man\u0131z": 33307,
  "map": 33359,
  "mar": 33368,
  "mara": 33374,
  "mari": 33399,
  "marine": 33408,
  "mark": 33417,
  "market": 33430,
  "married": 33458,
  "mart": 33475,
  "mas": 33498,
  "mask": 33525,
  "master": 33553,
  "mas\u0131": 33520,
  "mas\u0131na": 33521,
  "mas\u0131ndan": 33522,
  "mas\u0131n\u0131": 33523,
  "mas\u0131n\u0131n": 33524,
  "mat": 33572,
  "match": 33577,
  "mate": 33583,
  "material": 33591,
  "matic": 33614,
  "matik": 33615,
  "mature": 33632,
  "max": 33643,
  "may": 33656,
  "maya": 33661,
  "mayacak": 33664,
  "mayacakt\u0131r": 33665,
  "mayaca\u011f\u0131m": 33663,
  "mayan": 33666,
  "maybe": 33668,
  "may\u0131": 33672,
  "may\u0131n": 33673,
  "maz": 33683,
  "mazd\u0131": 33687,
  "mazd\u0131m": 33688,
  "mazlar": 33691,
  "mazsa": 33692,
  "mazsan\u0131z": 33693,
  "mazs\u0131n\u0131z": 33694,
  "ma\u011f\u0131": 32985,
  "mb": 33695,
  "mba": 33698,
  "mber": 33700,
  "mbi": 33701,
  "mbo": 33702,
  "mbra": 33704,
  "mbre": 33705,
  "mcg": 33714,
  "mda": 33723,
  "mdan": 33724,
  "mde": 33725,
  "mden": 33726,
  "me": 33728,
  "mean": 33739,
  "meaning": 33742,
  "measure": 33754,
  "mechanical": 33769,
  "med": 33780,
  "meden": 33786,
  "medi": 33790,
  "media": 33792,
  "medical": 33802,
  "medik": 33817,
  "mega": 33844,
  "megapixel": 33848,
  "mek": 33854,
  "mekanik": 33862,
  "mekle": 33871,
  "meksizin": 33874,
  "mekte": 33875,
  "mektedir": 33876,
  "mekten": 33877,
  "mekteydi": 33878,
  "mekteyiz": 33879,
  "mektir": 33880,
  "mel": 33887,
  "meleri": 33902,
  "meli": 33904,
  "melidir": 33905,
  "melisin": 33906,
  "melisiniz": 33907,
  "meliydim": 33909,
  "meliyim": 33910,
  "meliyiz": 33911,
  "mem": 33920,
  "member": 33921,
  "memesi": 33935,
  "memiz": 33937,
  "memi\u015f": 33936,
  "men": 33963,
  "menin": 33975,
  "meniz": 33976,
  "menopausal": 33978,
  "ment": 33986,
  "mentioned": 33995,
  "mento": 33998,
  "ments": 34001,
  "mer": 34014,
  "merciful": 34032,
  "meric": 34060,
  "merkez": 34064,
  "mes": 34093,
  "mesh": 34126,
  "mesi": 34130,
  "mesine": 34132,
  "mesini": 34133,
  "met": 34160,
  "metal": 34175,
  "meter": 34191,
  "methyl": 34203,
  "meti": 34205,
  "metic": 34206,
  "metil": 34208,
  "metre": 34217,
  "metri": 34224,
  "metric": 34225,
  "metrik": 34229,
  "metry": 34237,
  "meye": 34262,
  "meyebilir": 34263,
  "meyecek": 34268,
  "meyeceksin": 34269,
  "meyeceksiniz": 34270,
  "meyecektir": 34271,
  "meyece\u011fim": 34264,
  "meyece\u011fine": 34265,
  "meyece\u011fini": 34266,
  "meyece\u011fiz": 34267,
  "meyen": 34272,
  "meyi": 34274,
  "meyin": 34276,
  "mez": 34281,
  "mezdi": 34290,
  "mezdim": 34291,
  "mezler": 34293,
  "mezse": 34295,
  "mezseniz": 34296,
  "mg": 34303,
  "mi": 34308,
  "mia": 34319,
  "mic": 34322,
  "micro": 34335,
  "mid": 34357,
  "midst": 34369,
  "mie": 34374,
  "mighty": 34377,
  "migrant": 34381,
  "migration": 34388,
  "mik": 34393,
  "mil": 34415,
  "mile": 34425,
  "military": 34441,
  "mill": 34448,
  "millennial": 34452,
  "millimeter": 34466,
  "million": 34469,
  "min": 34499,
  "mina": 34505,
  "minal": 34507,
  "minated": 34509,
  "minating": 34510,
  "mind": 34511,
  "minded": 34514,
  "mine": 34520,
  "mineral": 34524,
  "ming": 34531,
  "mini": 34534,
  "minimum": 34550,
  "minute": 34575,
  "mir": 34581,
  "mis": 34601,
  "misin": 34629,
  "misiniz": 34633,
  "miss": 34653,
  "mission": 34668,
  "misti": 34686,
  "misunderstanding": 34700,
  "mit": 34706,
  "mite": 34712,
  "mitted": 34717,
  "mitting": 34718,
  "mix": 34719,
  "miyor": 34740,
  "miyordu": 34742,
  "miyorlar": 34744,
  "miyorsa": 34746,
  "miyorsan\u0131z": 34748,
  "miyorsun": 34749,
  "miyorsunuz": 34751,
  "miyorum": 34753,
  "miyoruz": 34755,
  "miz": 34757,
  "mizde": 34765,
  "mizdeki": 34766,
  "mizden": 34767,
  "mizdir": 34768,
  "mize": 34770,
  "mizi": 34771,
  "mizin": 34773,
  "mizle": 34776,
  "mi\u015f": 34605,
  "mi\u015fim": 34626,
  "mi\u015fimdir": 34628,
  "mi\u015fler": 34648,
  "mi\u015flerdi": 34649,
  "mi\u015flerdir": 34650,
  "mi\u015fsin": 34662,
  "mi\u015fsinizdir": 34666,
  "mi\u015fti": 34687,
  "mi\u015ftik": 34690,
  "mi\u015ftim": 34692,
  "mi\u015ftir": 34694,
  "ml": 34778,
  "mla": 34781,
  "mle": 34782,
  "mm": 34783,
  "mma": 34788,
  "mmer": 34789,
  "mo": 34791,
  "mobil": 34800,
  "mobile": 34804,
  "mod": 34821,
  "modal": 34827,
  "mode": 34828,
  "model": 34831,
  "modern": 34855,
  "mol": 34896,
  "molek\u00fcler": 34912,
  "mon": 34929,
  "mond": 34944,
  "money": 34949,
  "monger": 34953,
  "mont": 34985,
  "month": 34997,
  "moon": 35014,
  "mor": 35021,
  "moral": 35025,
  "more": 35032,
  "morph": 35048,
  "morrow": 35052,
  "mortem": 35058,
  "mos": 35060,
  "most": 35077,
  "mote": 35086,
  "mother": 35090,
  "motion": 35099,
  "moto": 35111,
  "motor": 35114,
  "mount": 35142,
  "mounted": 35150,
  "mouth": 35159,
  "mov": 35163,
  "moving": 35178,
  "moz": 35181,
  "mp": 35188,
  "mper": 35195,
  "mple": 35197,
  "mplification": 35198,
  "mpo": 35199,
  "mproving": 35200,
  "ms": 35209,
  "mu": 35222,
  "multi": 35355,
  "mun": 35391,
  "mur": 35405,
  "mus": 35422,
  "music": 35447,
  "musun": 35505,
  "musunuz": 35507,
  "mut": 35509,
  "muyor": 35560,
  "muyorum": 35562,
  "muz": 35565,
  "muza": 35567,
  "muzda": 35571,
  "muzu": 35589,
  "muzun": 35591,
  "mu\u015f": 35425,
  "mu\u015fsun": 35470,
  "mu\u015ftu": 35500,
  "mu\u015ftur": 35502,
  "mu\u015fum": 35504,
  "my": 35597,
  "mycin": 35604,
  "m\u00e2n": 33250,
  "m\u00fc": 35228,
  "m\u00fcn": 35393,
  "m\u00fcyor": 35561,
  "m\u00fcz": 35566,
  "m\u00fcze": 35573,
  "m\u00fcz\u00fc": 35590,
  "m\u00fc\u015f": 35426,
  "m\u00fc\u015ft\u00fc": 35501,
  "m\u00fc\u015ft\u00fcr": 35503,
  "m\u0131": 34314,
  "m\u0131n": 34504,
  "m\u0131yor": 34741,
  "m\u0131yordu": 34743,
  "m\u0131yorlar": 34745,
  "m\u0131yorsa": 34747,
  "m\u0131yorsun": 34750,
  "m\u0131yorsunuz": 34752,
  "m\u0131yorum": 34754,
  "m\u0131yoruz": 34756,
  "m\u0131z": 34758,
  "m\u0131za": 34759,
  "m\u0131zda": 34762,
  "m\u0131zdaki": 34763,
  "m\u0131zdan": 34764,
  "m\u0131zd\u0131r": 34769,
  "m\u0131zla": 34775,
  "m\u0131z\u0131": 34772,
  "m\u0131z\u0131n": 34774,
  "m\u0131\u015f": 34606,
  "m\u0131\u015flar": 34642,
  "m\u0131\u015flard\u0131": 34643,
  "m\u0131\u015flard\u0131r": 34644,
  "m\u0131\u015fs\u0131n": 34663,
  "m\u0131\u015fs\u0131n\u0131zd\u0131r": 34667,
  "m\u0131\u015ft\u0131": 34688,
  "m\u0131\u015ft\u0131k": 34691,
  "m\u0131\u015ft\u0131m": 34693,
  "m\u0131\u015ft\u0131r": 34695,
  "m\u0131\u015f\u0131m": 34627,
  "m\u0131\u015f\u0131zd\u0131r": 34641,
  "n": 35626,
  "na": 35630,
  "naerobic": 35643,
  "nah": 35645,
  "nai": 35647,
  "nak": 35653,
  "nal": 35668,
  "nam": 35669,
  "name": 35675,
  "nan": 35687,
  "nant": 35699,
  "nar": 35708,
  "nard": 35713,
  "nas\u0131l": 35731,
  "natal": 35741,
  "nate": 35744,
  "nation": 35748,
  "national": 35751,
  "natural": 35766,
  "nature": 35773,
  "naut": 35782,
  "naya": 35798,
  "nc": 35813,
  "nca": 35817,
  "nce": 35818,
  "nch": 35819,
  "nci": 35820,
  "ncia": 35821,
  "ncy": 35822,
  "nd": 35823,
  "nda": 35825,
  "ndaki": 35826,
  "ndan": 35827,
  "nde": 35828,
  "ndeki": 35829,
  "nden": 35830,
  "nder": 35831,
  "ndez": 35832,
  "ndi": 35833,
  "ndro": 35834,
  "nduction": 35835,
  "ne": 35836,
  "nea": 35842,
  "near": 35846,
  "nec": 35859,
  "necessary": 35861,
  "neck": 35867,
  "ned": 35873,
  "need": 35890,
  "negative": 35911,
  "negotiable": 35920,
  "nel": 35946,
  "nell": 35951,
  "nen": 35956,
  "neo": 35957,
  "ner": 35972,
  "nes": 35997,
  "ness": 36012,
  "nesthetic": 36016,
  "net": 36018,
  "nette": 36029,
  "network": 36031,
  "neurotransmitter": 36046,
  "never": 36055,
  "new": 36063,
  "nex": 36087,
  "ney": 36093,
  "nfectious": 36108,
  "ng": 36110,
  "nge": 36113,
  "nger": 36114,
  "ngle": 36115,
  "ni": 36119,
  "nia": 36127,
  "nian": 36129,
  "nic": 36130,
  "nica": 36132,
  "nick": 36143,
  "nie": 36155,
  "nier": 36159,
  "nig": 36161,
  "night": 36168,
  "nik": 36186,
  "nin": 36203,
  "nine": 36207,
  "ning": 36213,
  "nio": 36224,
  "nis": 36227,
  "nit": 36239,
  "nite": 36240,
  "nits": 36260,
  "nium": 36261,
  "niversitesi": 36262,
  "nix": 36263,
  "niz": 36272,
  "nizde": 36278,
  "nizdeki": 36279,
  "nizden": 36280,
  "nize": 36281,
  "nizi": 36282,
  "nizin": 36284,
  "nizle": 36287,
  "nk": 36289,
  "nker": 36291,
  "nkjet": 36292,
  "nm": 36293,
  "nn": 36295,
  "nna": 36297,
  "nne": 36298,
  "nnie": 36299,
  "nny": 36300,
  "no": 36301,
  "node": 36318,
  "nom": 36344,
  "nomic": 36345,
  "nomy": 36352,
  "non": 36353,
  "nor": 36370,
  "normal": 36381,
  "nos": 36414,
  "not": 36419,
  "note": 36426,
  "nothing": 36437,
  "nov": 36463,
  "nova": 36465,
  "now": 36479,
  "ns": 36492,
  "nserted": 36496,
  "nstagram": 36497,
  "nstrual": 36498,
  "nt": 36499,
  "ntegrating": 36502,
  "nti": 36503,
  "ntifungal": 36504,
  "ntiquities": 36505,
  "nto": 36506,
  "ntraven\u00f6z": 36508,
  "ntroduced": 36509,
  "nu": 36510,
  "nucle": 36517,
  "nuclear": 36518,
  "nucleotide": 36522,
  "num": 36539,
  "number": 36552,
  "nun": 36565,
  "nur": 36569,
  "nus": 36581,
  "nut": 36582,
  "nuz": 36592,
  "nuzda": 36594,
  "nuzu": 36595,
  "nuzun": 36597,
  "nvolve": 36600,
  "ny": 36602,
  "nya": 36606,
  "nym": 36610,
  "nz": 36611,
  "n\u00e2": 35636,
  "n\u00e7": 35816,
  "n\u00fc": 36516,
  "n\u00fckle": 36535,
  "n\u00fcn": 36568,
  "n\u00fcz": 36593,
  "n\u00fcz\u00fc": 36596,
  "n\u0131": 36125,
  "n\u0131n": 36205,
  "n\u0131z": 36273,
  "n\u0131za": 36274,
  "n\u0131zda": 36275,
  "n\u0131zdaki": 36276,
  "n\u0131zdan": 36277,
  "n\u0131zla": 36286,
  "n\u0131z\u0131": 36283,
  "n\u0131z\u0131n": 36285,
  "o": 36613,
  "oC": 36700,
  "ob": 36626,
  "oba": 36631,
  "obbing": 36633,
  "obby": 36634,
  "obi": 36646,
  "object": 36648,
  "obo": 36666,
  "oc": 36699,
  "ocational": 36705,
  "occupied": 36719,
  "och": 36735,
  "ock": 36736,
  "ococcus": 36737,
  "ocracy": 36738,
  "ocratic": 36739,
  "ocular": 36746,
  "ocytes": 36747,
  "od": 36748,
  "odd": 36788,
  "ode": 36792,
  "odi": 36819,
  "odic": 36820,
  "odo": 36823,
  "odor": 36824,
  "ody": 36843,
  "oe": 36845,
  "of": 36850,
  "off": 36855,
  "office": 36876,
  "official": 36885,
  "ofili": 36898,
  "often": 36908,
  "og": 36911,
  "ogen": 36919,
  "ogenesis": 36920,
  "ogenic": 36921,
  "oglu": 36928,
  "ograf": 36939,
  "ografi": 36940,
  "ografik": 36941,
  "ogram": 36942,
  "ographer": 36944,
  "ographic": 36945,
  "ography": 36946,
  "oh": 37028,
  "oi": 37036,
  "oid": 37037,
  "oil": 37038,
  "ois": 37043,
  "ojen": 37044,
  "ojenik": 37045,
  "oji": 37046,
  "ok": 37047,
  "oka": 37053,
  "okay": 37054,
  "oke": 37058,
  "oko": 37061,
  "okratik": 37062,
  "oksi": 37064,
  "oksit": 37069,
  "oku": 37074,
  "okul": 37084,
  "ol": 37134,
  "ola": 37143,
  "old": 37261,
  "oldu": 37269,
  "ole": 37344,
  "oli": 37356,
  "olic": 37357,
  "olin": 37361,
  "olithic": 37362,
  "olitik": 37363,
  "ollywood": 37369,
  "olo": 37466,
  "olog": 37467,
  "ologic": 37468,
  "ological": 37469,
  "ologies": 37471,
  "ologist": 37472,
  "ologists": 37473,
  "ology": 37474,
  "oloji": 37476,
  "olojik": 37477,
  "olojisi": 37478,
  "olon": 37479,
  "olone": 37480,
  "olution": 37597,
  "olytic": 37612,
  "om": 37613,
  "oma": 37616,
  "omal": 37617,
  "omb": 37619,
  "ome": 37620,
  "omer": 37626,
  "ometer": 37628,
  "ometre": 37629,
  "ometri": 37630,
  "ometric": 37631,
  "ometry": 37632,
  "omi": 37633,
  "omo": 37639,
  "omy": 37649,
  "on": 37651,
  "ona": 37660,
  "ondo": 37718,
  "one": 37719,
  "ong": 37768,
  "oni": 37777,
  "onia": 37778,
  "onic": 37779,
  "onik": 37780,
  "onlar": 37782,
  "online": 37812,
  "only": 37817,
  "onne": 37822,
  "onomi": 37823,
  "ons": 37824,
  "ontinental": 37830,
  "onu": 37832,
  "onun": 37841,
  "ony": 37859,
  "oo": 37861,
  "ood": 37862,
  "oodle": 37864,
  "ook": 37866,
  "oon": 37868,
  "oooo": 37870,
  "oop": 37871,
  "op": 37873,
  "opa": 37880,
  "opathic": 37881,
  "opathy": 37882,
  "opati": 37883,
  "ope": 37884,
  "open": 37888,
  "oper": 37900,
  "operate": 37912,
  "operation": 37920,
  "operative": 37928,
  "oph": 37937,
  "ophobia": 37938,
  "ophobic": 37939,
  "ophy": 37940,
  "opia": 37941,
  "oplasti": 37947,
  "oplasty": 37948,
  "opo": 37950,
  "opoulos": 37951,
  "optic": 37974,
  "optimizing": 37994,
  "option": 37997,
  "optional": 38001,
  "opy": 38011,
  "or": 38012,
  "ora": 38021,
  "oral": 38032,
  "ord": 38066,
  "order": 38070,
  "ordinary": 38078,
  "ordinate": 38081,
  "ordination": 38082,
  "ore": 38089,
  "org": 38091,
  "organ": 38093,
  "organic": 38098,
  "organization": 38121,
  "organized": 38133,
  "ori": 38162,
  "oria": 38163,
  "oriented": 38168,
  "ories": 38170,
  "original": 38173,
  "originating": 38181,
  "oro": 38212,
  "ors": 38219,
  "ort": 38221,
  "orta": 38223,
  "ory": 38281,
  "os": 38282,
  "osa": 38285,
  "osaurus": 38288,
  "oscope": 38293,
  "oscopic": 38294,
  "oscopy": 38295,
  "ose": 38296,
  "osh": 38297,
  "oshi": 38299,
  "osi": 38300,
  "osis": 38302,
  "osit": 38303,
  "oskop": 38304,
  "oskopi": 38305,
  "osphere": 38309,
  "osse": 38311,
  "osu": 38319,
  "ot": 38321,
  "ota": 38324,
  "otassium": 38326,
  "ote": 38327,
  "otel": 38332,
  "oterapi": 38349,
  "oth": 38355,
  "other": 38356,
  "otherapy": 38361,
  "otic": 38366,
  "otik": 38367,
  "oto": 38369,
  "otomy": 38388,
  "otropic": 38398,
  "otto": 38400,
  "otu": 38403,
  "ou": 38425,
  "ouch": 38427,
  "ough": 38428,
  "ought": 38429,
  "oul": 38431,
  "oun": 38432,
  "ounce": 38433,
  "ound": 38434,
  "our": 38436,
  "ours": 38442,
  "ous": 38445,
  "ously": 38447,
  "out": 38448,
  "ov": 38489,
  "ova": 38491,
  "ovable": 38493,
  "over": 38501,
  "ovi": 38539,
  "ovic": 38540,
  "ovich": 38542,
  "ovi\u00e7": 38541,
  "ovo": 38543,
  "ovski": 38544,
  "ovsky": 38545,
  "ow": 38548,
  "owitz": 38554,
  "own": 38556,
  "owned": 38560,
  "owner": 38562,
  "owski": 38567,
  "ox": 38568,
  "oxi": 38574,
  "oxidant": 38575,
  "oxide": 38578,
  "oxin": 38582,
  "oxy": 38583,
  "oy": 38586,
  "oynayabilirsiniz": 38634,
  "oyun": 38648,
  "oz": 38686,
  "ozis": 38748,
  "ozo": 38757,
  "o\u011flu": 36929,
  "o\u011ful": 37019,
  "o\u011fullar\u0131": 37022,
  "p": 38769,
  "pa": 38773,
  "pac": 38780,
  "paced": 38785,
  "pack": 38788,
  "pad": 38806,
  "page": 38815,
  "paid": 38827,
  "pain": 38831,
  "painted": 38839,
  "pair": 38845,
  "pal": 38861,
  "pan": 38897,
  "panel": 38912,
  "paper": 38955,
  "par": 38963,
  "para": 38968,
  "parent": 39049,
  "park": 39061,
  "part": 39101,
  "particularly": 39126,
  "partisan": 39135,
  "partment": 39142,
  "partner": 39143,
  "party": 39156,
  "par\u00e7a": 39026,
  "pas": 39160,
  "pass": 39181,
  "past": 39204,
  "pat": 39216,
  "path": 39231,
  "pati": 39242,
  "patient": 39245,
  "pay": 39297,
  "payment": 39329,
  "pazar": 39337,
  "pa\u015fa": 39164,
  "pbuh": 39356,
  "pc": 39357,
  "pcs": 39363,
  "pdf": 39371,
  "pe": 39374,
  "peace": 39381,
  "pec": 39401,
  "pect": 39402,
  "ped": 39405,
  "pek": 39428,
  "pel": 39439,
  "pen": 39449,
  "pent": 39489,
  "people": 39493,
  "peptide": 39502,
  "per": 39505,
  "perfect": 39523,
  "performance": 39533,
  "perhaps": 39549,
  "period": 39557,
  "permanent": 39574,
  "person": 39605,
  "personal": 39608,
  "pert": 39636,
  "pes": 39643,
  "pet": 39658,
  "pex": 39684,
  "ph": 39694,
  "pha": 39700,
  "phan": 39702,
  "pharmaceutical": 39709,
  "phase": 39717,
  "phe": 39723,
  "phen": 39725,
  "phenol": 39727,
  "pheric": 39732,
  "phi": 39733,
  "philosoph": 39746,
  "pho": 39755,
  "phobia": 39757,
  "phon": 39760,
  "phone": 39761,
  "phosphate": 39767,
  "photo": 39773,
  "php": 39796,
  "phrase": 39798,
  "phthal": 39801,
  "phy": 39803,
  "physical": 39805,
  "physics": 39815,
  "pi": 39825,
  "pic": 39835,
  "pick": 39841,
  "picture": 39848,
  "pid": 39855,
  "pie": 39856,
  "piece": 39859,
  "pigmentation": 39877,
  "pil": 39884,
  "pilot": 39903,
  "pin": 39910,
  "pine": 39918,
  "ping": 39922,
  "pipe": 39936,
  "pir": 39944,
  "pit": 39980,
  "pl": 40014,
  "pla": 40017,
  "place": 40021,
  "plan": 40046,
  "plane": 40053,
  "planetary": 40059,
  "planned": 40085,
  "plant": 40094,
  "plast": 40108,
  "plastic": 40110,
  "plastik": 40116,
  "plate": 40121,
  "plated": 40126,
  "platform": 40129,
  "platz": 40147,
  "play": 40149,
  "player": 40157,
  "playing": 40166,
  "ple": 40176,
  "please": 40183,
  "pleks": 40195,
  "plex": 40200,
  "pli": 40201,
  "plication": 40202,
  "plikasyon": 40203,
  "plo": 40204,
  "plug": 40210,
  "plus": 40224,
  "pm": 40232,
  "png": 40240,
  "po": 40244,
  "pocalypse": 40250,
  "pod": 40254,
  "point": 40268,
  "pol": 40289,
  "polar": 40293,
  "pole": 40297,
  "poli": 40302,
  "polis": 40320,
  "political": 40335,
  "politik": 40344,
  "poly": 40372,
  "polymer": 40380,
  "pon": 40397,
  "ponents": 40402,
  "pool": 40406,
  "pop": 40417,
  "por": 40442,
  "porn": 40449,
  "port": 40466,
  "pos": 40500,
  "pose": 40503,
  "posed": 40505,
  "posit": 40512,
  "position": 40514,
  "positive": 40520,
  "possess": 40524,
  "possibly": 40535,
  "post": 40538,
  "posta": 40543,
  "postalar": 40549,
  "pot": 40564,
  "potent": 40578,
  "pound": 40590,
  "powder": 40600,
  "power": 40604,
  "powered": 40609,
  "powerful": 40612,
  "pp": 40628,
  "ppa": 40632,
  "pped": 40634,
  "ppel": 40635,
  "pper": 40636,
  "ppet": 40637,
  "ppi": 40638,
  "pping": 40639,
  "ppy": 40641,
  "pr": 40642,
  "pra": 40647,
  "practice": 40653,
  "pre": 40683,
  "precision": 40707,
  "pres": 40781,
  "present": 40791,
  "president": 40810,
  "press": 40817,
  "pression": 40824,
  "pressure": 40825,
  "pri": 40863,
  "price": 40867,
  "print": 40906,
  "privat": 40936,
  "private": 40937,
  "pro": 40951,
  "probably": 40962,
  "process": 40988,
  "processing": 40995,
  "produced": 41009,
  "producer": 41012,
  "producing": 41017,
  "product": 41020,
  "production": 41025,
  "productive": 41029,
  "professional": 41046,
  "profile": 41065,
  "profit": 41074,
  "program": 41084,
  "programlanabilir": 41102,
  "project": 41135,
  "proliferati": 41167,
  "proof": 41203,
  "prop": 41206,
  "propelled": 41212,
  "proportionately": 41234,
  "propyl": 41245,
  "protect": 41277,
  "protection": 41284,
  "protein": 41291,
  "provide": 41334,
  "ps": 41370,
  "psi": 41378,
  "psiyon": 41395,
  "psy": 41398,
  "psycho": 41407,
  "pt": 41422,
  "pto": 41425,
  "pton": 41426,
  "pu": 41428,
  "pub": 41437,
  "public": 41442,
  "publish": 41453,
  "published": 41456,
  "pulse": 41482,
  "pun": 41492,
  "punk": 41506,
  "pur": 41516,
  "purchase": 41520,
  "purpose": 41543,
  "pus": 41555,
  "put": 41567,
  "py": 41583,
  "p\u0131nar": 39915,
  "q": 41593,
  "qa": 41597,
  "qi": 41601,
  "qq": 41605,
  "qu": 41607,
  "qua": 41612,
  "qualified": 41626,
  "quality": 41632,
  "quan": 41637,
  "quarter": 41650,
  "que": 41657,
  "quer": 41668,
  "quest": 41671,
  "question": 41674,
  "quette": 41684,
  "qui": 41686,
  "quick": 41688,
  "quiet": 41696,
  "quin": 41701,
  "quire": 41706,
  "quis": 41707,
  "quo": 41715,
  "r": 41729,
  "ra": 41733,
  "rab": 41740,
  "rac": 41759,
  "race": 41763,
  "rach": 41767,
  "rack": 41775,
  "rac\u0131": 41769,
  "rad": 41779,
  "radio": 41800,
  "raf": 41814,
  "rag": 41824,
  "rage": 41827,
  "ragon": 41831,
  "rah": 41832,
  "rai": 41860,
  "rail": 41865,
  "rain": 41872,
  "raising": 41886,
  "raj": 41889,
  "rak": 41892,
  "rake": 41899,
  "raki": 41900,
  "ral": 41907,
  "ram": 41913,
  "rama": 41918,
  "ran": 41927,
  "rance": 41931,
  "rang": 41942,
  "range": 41943,
  "rank": 41951,
  "ranking": 41956,
  "rant": 41964,
  "ran\u0131n": 41950,
  "rap": 41965,
  "rar": 41990,
  "ras": 41994,
  "rash": 41997,
  "rat": 42008,
  "rate": 42012,
  "rated": 42015,
  "rati": 42022,
  "rating": 42024,
  "ration": 42030,
  "rator": 42032,
  "rav": 42036,
  "raw": 42041,
  "ray": 42045,
  "rays": 42052,
  "raz": 42054,
  "ra\u00e7": 41762,
  "ra\u011f\u0131": 41829,
  "rb": 42057,
  "rbitral": 42059,
  "rc": 42060,
  "rce": 42063,
  "rchaeological": 42064,
  "rcheological": 42065,
  "rd": 42066,
  "rdi": 42068,
  "re": 42069,
  "reach": 42075,
  "reaching": 42081,
  "read": 42092,
  "reading": 42102,
  "ready": 42106,
  "real": 42116,
  "reasing": 42141,
  "reason": 42142,
  "rece": 42175,
  "recognising": 42218,
  "recognized": 42225,
  "record": 42245,
  "red": 42287,
  "ref": 42336,
  "reflect": 42363,
  "refundable": 42404,
  "reg": 42414,
  "region": 42434,
  "register": 42441,
  "rek": 42517,
  "rel": 42534,
  "related": 42538,
  "release": 42564,
  "reliant": 42581,
  "religious": 42592,
  "rem": 42601,
  "remember": 42619,
  "ren": 42650,
  "renowned": 42683,
  "rent": 42685,
  "reparatory": 42703,
  "represent": 42749,
  "required": 42778,
  "requisite": 42788,
  "res": 42789,
  "reservation": 42818,
  "resi": 42831,
  "resistance": 42863,
  "resistant": 42866,
  "resolution": 42878,
  "respect": 42895,
  "respond": 42906,
  "response": 42913,
  "responsibilities": 42917,
  "ress": 42926,
  "ressurized": 42928,
  "rest": 42929,
  "ret": 42977,
  "rev": 43023,
  "revolution": 43071,
  "revolutionary": 43075,
  "rey": 43089,
  "rez": 43093,
  "rf": 43103,
  "rg": 43107,
  "rge": 43110,
  "rgi": 43111,
  "rhe": 43113,
  "rho": 43117,
  "ri": 43123,
  "ria": 43132,
  "rian": 43134,
  "ric": 43140,
  "rica": 43141,
  "rice": 43145,
  "rich": 43148,
  "rick": 43158,
  "rid": 43162,
  "ridden": 43164,
  "ride": 43165,
  "ridge": 43171,
  "rie": 43177,
  "riel": 43179,
  "ries": 43180,
  "rif": 43182,
  "rig": 43185,
  "right": 43189,
  "righteous": 43194,
  "rik": 43206,
  "ril": 43209,
  "rill": 43211,
  "rim": 43212,
  "rin": 43215,
  "rina": 43216,
  "rine": 43217,
  "ring": 43218,
  "rino": 43224,
  "rio": 43226,
  "rious": 43229,
  "rip": 43230,
  "ris": 43239,
  "rise": 43241,
  "risk": 43248,
  "rist": 43260,
  "rit": 43261,
  "rite": 43265,
  "rium": 43273,
  "riv": 43274,
  "rix": 43287,
  "riya": 43289,
  "riz": 43292,
  "rk": 43298,
  "rken": 43300,
  "rl": 43301,
  "rma": 43304,
  "rmak": 43305,
  "rme": 43306,
  "rmored": 43307,
  "rmoured": 43308,
  "rn": 43309,
  "rna": 43311,
  "ro": 43314,
  "road": 43321,
  "rob": 43331,
  "roc": 43357,
  "rock": 43360,
  "rod": 43372,
  "rog": 43379,
  "roid": 43389,
  "rol": 43393,
  "roll": 43403,
  "rom": 43420,
  "ron": 43446,
  "rone": 43451,
  "ronik": 43454,
  "room": 43463,
  "root": 43474,
  "rop": 43479,
  "ropylene": 43485,
  "ros": 43487,
  "rose": 43490,
  "rot": 43504,
  "rou": 43522,
  "round": 43530,
  "rous": 43537,
  "rouse": 43538,
  "route": 43540,
  "rov": 43550,
  "row": 43553,
  "rox": 43558,
  "roy": 43560,
  "roz": 43568,
  "rp": 43572,
  "rr": 43577,
  "rra": 43579,
  "rrell": 43580,
  "rri": 43581,
  "rried": 43582,
  "rrier": 43583,
  "rrington": 43584,
  "rry": 43585,
  "rs": 43586,
  "rt": 43591,
  "rterial": 43594,
  "rtical": 43595,
  "ru": 43596,
  "rub": 43603,
  "ruc": 43617,
  "rug": 43623,
  "ruh": 43629,
  "ruk": 43647,
  "rul": 43648,
  "ruldu": 43649,
  "rule": 43650,
  "rum": 43665,
  "run": 43672,
  "runner": 43677,
  "running": 43680,
  "rup": 43685,
  "rus": 43691,
  "rush": 43697,
  "ry": 43734,
  "ryl": 43738,
  "ryvnia": 43739,
  "r\u00e2": 41739,
  "r\u00ee": 43129,
  "r\u00f6": 43320,
  "r\u00fc": 43602,
  "r\u0131": 43130,
  "r\u015fi": 43589,
  "s": 43740,
  "sa": 43750,
  "saat": 43761,
  "saatine": 43770,
  "sadece": 43844,
  "saf": 43854,
  "safe": 43862,
  "safety": 43871,
  "sah": 43951,
  "sai": 44009,
  "sak": 44024,
  "sal": 44066,
  "sale": 44096,
  "sales": 44100,
  "sallallah": 44117,
  "sam": 44142,
  "san": 44179,
  "sana": 44186,
  "san\u0131z": 44253,
  "sar": 44311,
  "sas": 44377,
  "sat": 44392,
  "sav": 44457,
  "sava\u015f": 44462,
  "saving": 44489,
  "saw": 44511,
  "say": 44519,
  "sayd\u0131": 44528,
  "sayd\u0131k": 44529,
  "sayd\u0131m": 44530,
  "sayfa": 44535,
  "say\u0131": 44557,
  "sa\u011f": 43881,
  "sburg": 44587,
  "scale": 44598,
  "scan": 44607,
  "scape": 44619,
  "scended": 44635,
  "scene": 44636,
  "sch": 44643,
  "school": 44669,
  "science": 44684,
  "scientific": 44691,
  "sco": 44701,
  "scope": 44709,
  "screen": 44740,
  "scribe": 44754,
  "scribed": 44755,
  "script": 44756,
  "scription": 44760,
  "sculpt": 44775,
  "se": 44785,
  "sea": 44794,
  "search": 44814,
  "season": 44824,
  "seat": 44831,
  "second": 44922,
  "secret": 44931,
  "section": 44952,
  "secure": 44961,
  "security": 44970,
  "see": 44983,
  "seed": 44988,
  "sek": 45060,
  "seks\u00fcel": 45098,
  "sel": 45115,
  "self": 45140,
  "sell": 45148,
  "selling": 45155,
  "sem": 45160,
  "sen": 45197,
  "sene": 45227,
  "seniz": 45246,
  "senkron": 45247,
  "sensitive": 45259,
  "sensitiz": 45264,
  "sensor": 45265,
  "sent": 45277,
  "sept": 45310,
  "sequence": 45316,
  "ser": 45320,
  "seri": 45356,
  "series": 45363,
  "servant": 45406,
  "serve": 45410,
  "served": 45413,
  "server": 45415,
  "service": 45422,
  "serving": 45431,
  "ses": 45440,
  "session": 45453,
  "set": 45462,
  "setting": 45473,
  "sev": 45490,
  "sever": 45517,
  "sex": 45595,
  "sexual": 45599,
  "sey": 45606,
  "seydi": 45617,
  "seydik": 45619,
  "seydim": 45620,
  "sh": 45663,
  "sha": 45668,
  "shadow": 45677,
  "shake": 45686,
  "shan": 45705,
  "shape": 45715,
  "shaped": 45718,
  "share": 45723,
  "sharing": 45734,
  "shaw": 45751,
  "she": 45755,
  "shed": 45761,
  "sheet": 45766,
  "shell": 45776,
  "shi": 45796,
  "shield": 45801,
  "shift": 45804,
  "shima": 45812,
  "shin": 45813,
  "shing": 45816,
  "ship": 45819,
  "ships": 45831,
  "shire": 45836,
  "shirt": 45838,
  "sho": 45847,
  "shock": 45849,
  "shoot": 45859,
  "shop": 45865,
  "shore": 45874,
  "short": 45877,
  "shot": 45890,
  "should": 45895,
  "show": 45910,
  "si": 45946,
  "sia": 45958,
  "side": 46001,
  "sided": 46004,
  "sidir": 46007,
  "sie": 46010,
  "sigara": 46029,
  "sight": 46035,
  "sign": 46051,
  "signed": 46063,
  "sil": 46132,
  "silver": 46174,
  "sim": 46179,
  "similar": 46200,
  "sin": 46233,
  "since": 46247,
  "sinde": 46258,
  "sindeki": 46259,
  "sinden": 46260,
  "sine": 46262,
  "sing": 46268,
  "singapore": 46271,
  "single": 46278,
  "sini": 46283,
  "sinin": 46300,
  "siniz": 46323,
  "sinler": 46328,
  "sion": 46342,
  "sis": 46418,
  "sistem": 46432,
  "sit": 46460,
  "site": 46463,
  "sitting": 46502,
  "sive": 46511,
  "six": 46518,
  "siyah": 46527,
  "siydi": 46539,
  "siyle": 46542,
  "siyon": 46543,
  "siz": 46545,
  "size": 46560,
  "sized": 46565,
  "sizlik": 46586,
  "sizli\u011fi": 46584,
  "sizli\u011fin": 46585,
  "sk": 46591,
  "ska": 46595,
  "skaya": 46599,
  "skeletal": 46600,
  "ski": 46606,
  "skin": 46616,
  "skinned": 46619,
  "sko": 46629,
  "skop": 46630,
  "sky": 46638,
  "sk\u00fcdar": 46635,
  "slated": 46657,
  "slav": 46660,
  "sleep": 46672,
  "small": 46739,
  "sman": 46745,
  "smart": 46746,
  "smith": 46769,
  "smoke": 46772,
  "smoking": 46777,
  "so": 46819,
  "social": 46834,
  "soever": 46865,
  "soft": 46875,
  "sol": 46925,
  "solar": 46929,
  "solid": 46946,
  "soluble": 46957,
  "solution": 46964,
  "solve": 46969,
  "solving": 46975,
  "some": 46980,
  "something": 46997,
  "sometimes": 47003,
  "son": 47018,
  "songwriter": 47034,
  "sonra": 47039,
  "sor": 47097,
  "sorb": 47108,
  "soru": 47139,
  "sosyal": 47207,
  "source": 47233,
  "south": 47240,
  "soy": 47266,
  "sp": 47410,
  "space": 47419,
  "span": 47434,
  "speaker": 47464,
  "speaking": 47468,
  "special": 47476,
  "specific": 47493,
  "spect": 47508,
  "speed": 47522,
  "sper": 47536,
  "sphere": 47542,
  "spir": 47571,
  "spiration": 47574,
  "spirator": 47575,
  "spiring": 47576,
  "spirit": 47577,
  "sponsor": 47611,
  "spor": 47623,
  "spot": 47639,
  "spread": 47655,
  "spring": 47662,
  "sqm": 47680,
  "square": 47687,
  "srael": 47698,
  "ss": 47701,
  "sse": 47706,
  "ssed": 47707,
  "ssel": 47708,
  "sso": 47711,
  "sson": 47712,
  "ssos": 47713,
  "ssuming": 47715,
  "st": 47716,
  "sta": 47722,
  "stack": 47740,
  "stad": 47744,
  "stadt": 47747,
  "staff": 47750,
  "stage": 47753,
  "stal": 47773,
  "stan": 47782,
  "stanbul": 47784,
  "stand": 47786,
  "standard": 47791,
  "standing": 47812,
  "stant": 47820,
  "star": 47823,
  "start": 47837,
  "stat": 47853,
  "state": 47856,
  "static": 47866,
  "statik": 47869,
  "station": 47873,
  "stay": 47896,
  "ste": 47905,
  "stead": 47909,
  "steel": 47921,
  "stein": 47931,
  "steklenmektedir": 47933,
  "stem": 47936,
  "sten": 47939,
  "step": 47940,
  "ster": 47951,
  "sti": 47981,
  "stick": 47985,
  "stik": 47997,
  "still": 48001,
  "stim": 48005,
  "stin": 48012,
  "stle": 48026,
  "sto": 48027,
  "stock": 48031,
  "ston": 48047,
  "stone": 48048,
  "stop": 48054,
  "store": 48064,
  "storey": 48070,
  "storm": 48074,
  "story": 48078,
  "str": 48083,
  "stra": 48087,
  "stral": 48097,
  "strasse": 48110,
  "strategic": 48112,
  "stration": 48128,
  "stre": 48135,
  "stream": 48138,
  "street": 48146,
  "strength": 48151,
  "stress": 48164,
  "stretch": 48170,
  "stricken": 48176,
  "strict": 48177,
  "stro": 48202,
  "stroke": 48204,
  "strom": 48208,
  "strong": 48209,
  "stru": 48217,
  "structional": 48221,
  "structure": 48224,
  "student": 48241,
  "studio": 48251,
  "study": 48256,
  "stuff": 48264,
  "sty": 48279,
  "style": 48280,
  "su": 48288,
  "sub": 48303,
  "success": 48368,
  "such": 48380,
  "sufficiency": 48422,
  "sufficient": 48423,
  "suit": 48442,
  "suite": 48450,
  "summer": 48483,
  "sumption": 48491,
  "sun": 48492,
  "suna": 48499,
  "sunda": 48513,
  "sundur": 48519,
  "sunu": 48550,
  "sunun": 48574,
  "sunuz": 48577,
  "super": 48581,
  "supp": 48622,
  "supplier": 48631,
  "support": 48642,
  "sur": 48667,
  "sure": 48700,
  "surface": 48746,
  "surgery": 48755,
  "surgical": 48758,
  "sus": 48842,
  "sustain": 48866,
  "suz": 48894,
  "suzluk": 48898,
  "suzlu\u011fu": 48897,
  "sweet": 48930,
  "sy": 48973,
  "symmetric": 48985,
  "symmetry": 48987,
  "sync": 49002,
  "synchronous": 49009,
  "synthetic": 49020,
  "syon": 49023,
  "syonu": 49024,
  "system": 49034,
  "s\u00e2": 43759,
  "s\u00f6z": 47376,
  "s\u00fc": 48298,
  "s\u00fcl": 48464,
  "s\u00fclf\u00fcr": 48471,
  "s\u00fcn": 48498,
  "s\u00fcn\u00fcz": 48578,
  "s\u00fcr": 48670,
  "s\u00fcz": 48895,
  "s\u00fczl\u00fck": 48899,
  "s\u00fd": 48976,
  "s\u0131": 45955,
  "s\u0131d\u0131r": 46008,
  "s\u0131n": 46236,
  "s\u0131na": 46238,
  "s\u0131nda": 46255,
  "s\u0131ndaki": 46256,
  "s\u0131ndan": 46257,
  "s\u0131nlar": 46327,
  "s\u0131n\u0131": 46284,
  "s\u0131n\u0131n": 46301,
  "s\u0131n\u0131z": 46324,
  "s\u0131yla": 46541,
  "s\u0131z": 46549,
  "s\u0131zl\u0131k": 46587,
  "t": 49045,
  "ta": 49049,
  "table": 49081,
  "tack": 49101,
  "tag": 49117,
  "tah": 49124,
  "tai": 49150,
  "tail": 49152,
  "tain": 49157,
  "tainment": 49159,
  "taj": 49162,
  "take": 49174,
  "taker": 49181,
  "taki": 49183,
  "taking": 49202,
  "tal": 49234,
  "talia": 49255,
  "talk": 49263,
  "tamam": 49280,
  "tan": 49315,
  "tank": 49413,
  "tar": 49454,
  "target": 49494,
  "tarih": 49509,
  "tas": 49565,
  "taste": 49645,
  "tasyon": 49654,
  "tax": 49697,
  "tay": 49706,
  "tay\u0131z": 49710,
  "ta\u015f": 49568,
  "ta\u015f\u0131": 49603,
  "tch": 49724,
  "te": 49727,
  "tea": 49733,
  "team": 49750,
  "tec": 49772,
  "tech": 49778,
  "technical": 49785,
  "technology": 49805,
  "ted": 49816,
  "teen": 49845,
  "tek": 49873,
  "teki": 49886,
  "teknik": 49901,
  "teknoloji": 49910,
  "tel": 49936,
  "telefon": 49948,
  "telekom\u00fcnikasyon": 49968,
  "tell": 49989,
  "tem": 49996,
  "tematik": 50006,
  "temp": 50036,
  "temperature": 50041,
  "ten": 50069,
  "tens": 50091,
  "tension": 50096,
  "tepe": 50113,
  "ter": 50122,
  "tera": 50126,
  "terapi": 50127,
  "tercultural": 50139,
  "terdisciplinary": 50143,
  "tergovernmental": 50148,
  "teri": 50149,
  "terine": 50156,
  "terior": 50157,
  "term": 50161,
  "termin": 50168,
  "tern": 50185,
  "ternal": 50186,
  "tero": 50187,
  "terra": 50195,
  "terrestrial": 50201,
  "terrorism": 50216,
  "terrorist": 50219,
  "ters": 50225,
  "ter\u00f6r": 50188,
  "tes": 50234,
  "test": 50280,
  "tested": 50286,
  "testosterone": 50306,
  "tex": 50323,
  "text": 50330,
  "teyiz": 50342,
  "tez": 50345,
  "th": 50354,
  "tha": 50360,
  "thal": 50365,
  "than": 50368,
  "thank": 50371,
  "that": 50383,
  "the": 50389,
  "their": 50403,
  "then": 50412,
  "ther": 50426,
  "therapy": 50432,
  "there": 50435,
  "these": 50458,
  "thesis": 50462,
  "they": 50466,
  "thi": 50471,
  "thin": 50486,
  "thing": 50490,
  "think": 50496,
  "thinking": 50501,
  "third": 50506,
  "thirds": 50510,
  "this": 50517,
  "thos": 50533,
  "those": 50534,
  "though": 50541,
  "threat": 50555,
  "threatening": 50560,
  "three": 50564,
  "thro": 50579,
  "throat": 50580,
  "through": 50587,
  "thus": 50609,
  "thy": 50614,
  "thylene": 50618,
  "ti": 50621,
  "tia": 50628,
  "tial": 50629,
  "tian": 50630,
  "tic": 50638,
  "tica": 50641,
  "tical": 50642,
  "ticaret": 50643,
  "tici": 50652,
  "ticipa": 50654,
  "ticket": 50657,
  "tics": 50663,
  "tie": 50668,
  "tier": 50672,
  "ties": 50675,
  "tif": 50678,
  "tight": 50684,
  "tigi": 50689,
  "tik": 50698,
  "til": 50714,
  "tile": 50717,
  "tim": 50727,
  "time": 50732,
  "tin": 50745,
  "tina": 50750,
  "tine": 50753,
  "ting": 50754,
  "tino": 50757,
  "tion": 50760,
  "tions": 50762,
  "tip": 50763,
  "tir": 50781,
  "tis": 50798,
  "tit": 50804,
  "title": 50814,
  "tiv": 50825,
  "tive": 50826,
  "tizm": 50833,
  "ti\u011fi": 50690,
  "ti\u011fimiz": 50693,
  "ti\u011fini": 50695,
  "ti\u011finiz": 50697,
  "tle": 50837,
  "tler": 50838,
  "tma": 50841,
  "tme": 50842,
  "tmek": 50843,
  "tmeye": 50844,
  "tner": 50845,
  "to": 50847,
  "together": 50868,
  "tology": 50903,
  "toloji": 50904,
  "tom": 50906,
  "ton": 50919,
  "tone": 50923,
  "too": 50935,
  "took": 50939,
  "tool": 50942,
  "tooth": 50951,
  "top": 50956,
  "tor": 51047,
  "tori": 51062,
  "toria": 51063,
  "tors": 51077,
  "tory": 51083,
  "tos": 51084,
  "total": 51087,
  "touch": 51095,
  "tov": 51121,
  "town": 51133,
  "toxic": 51138,
  "toz": 51148,
  "tr": 51155,
  "tra": 51160,
  "track": 51170,
  "traction": 51181,
  "trade": 51186,
  "traditional": 51202,
  "train": 51221,
  "trained": 51224,
  "tral": 51243,
  "trans": 51250,
  "transfer": 51266,
  "translation": 51298,
  "travel": 51338,
  "tre": 51360,
  "treat": 51371,
  "treatment": 51377,
  "tree": 51384,
  "tri": 51410,
  "trial": 51415,
  "tric": 51430,
  "trik": 51443,
  "trip": 51454,
  "trix": 51468,
  "tro": 51470,
  "troducing": 51475,
  "tron": 51481,
  "tronic": 51483,
  "troph": 51487,
  "tropi": 51491,
  "tropin": 51498,
  "truck": 51514,
  "true": 51519,
  "trust": 51533,
  "truth": 51541,
  "try": 51547,
  "ts": 51554,
  "tsu": 51559,
  "tt": 51562,
  "tta": 51565,
  "tte": 51566,
  "tter": 51567,
  "tti": 51568,
  "tting": 51573,
  "tti\u011fi": 51570,
  "tti\u011fim": 51572,
  "tty": 51574,
  "tt\u0131": 51569,
  "tt\u0131\u011f\u0131": 51571,
  "tu": 51575,
  "tube": 51585,
  "tuk": 51605,
  "tum": 51630,
  "tun": 51646,
  "tune": 51649,
  "tur": 51664,
  "ture": 51682,
  "turk": 51696,
  "turn": 51728,
  "tus": 51760,
  "tu\u011fu": 51600,
  "tv": 51847,
  "tw": 51852,
  "two": 51884,
  "txt": 51889,
  "ty": 51891,
  "tylish": 51896,
  "type": 51898,
  "typical": 51906,
  "tz": 51920,
  "t\u00f6r": 51050,
  "t\u00fc": 51581,
  "t\u00fck": 51606,
  "t\u00fcm": 51631,
  "t\u00fcr": 51670,
  "t\u00fcrk": 51700,
  "t\u00fc\u011f\u00fc": 51601,
  "t\u0131": 50626,
  "t\u0131c\u0131": 50653,
  "t\u0131k": 50699,
  "t\u0131lar": 50716,
  "t\u0131lm\u0131\u015f": 50725,
  "t\u0131l\u0131": 50721,
  "t\u0131m": 50730,
  "t\u0131n": 50749,
  "t\u0131r": 50783,
  "t\u0131yor": 50832,
  "t\u0131\u011f\u0131": 50691,
  "t\u0131\u011f\u0131m": 50692,
  "t\u0131\u011f\u0131m\u0131z": 50694,
  "t\u0131\u011f\u0131n\u0131": 50696,
  "u": 51922,
  "ua": 51930,
  "ual": 51934,
  "ub": 51936,
  "uba": 51939,
  "uber": 51941,
  "ubi": 51943,
  "uble": 51945,
  "ublimation": 51946,
  "uc": 51948,
  "uca": 51958,
  "ucci": 51971,
  "uce": 51972,
  "uch": 51975,
  "uci": 51976,
  "uck": 51977,
  "ucker": 51978,
  "ucu": 52001,
  "ud": 52025,
  "uda": 52026,
  "uddy": 52027,
  "ude": 52028,
  "udi": 52029,
  "udur": 52030,
  "ue": 52032,
  "uel": 52035,
  "uf": 52036,
  "uff": 52040,
  "uffle": 52041,
  "ug": 52047,
  "uga": 52048,
  "uge": 52050,
  "ugged": 52051,
  "ugging": 52052,
  "ugh": 52053,
  "ugu": 52081,
  "uh": 52088,
  "ui": 52093,
  "uid": 52094,
  "uit": 52096,
  "uk": 52097,
  "uka": 52101,
  "uke": 52102,
  "uki": 52103,
  "ul": 52110,
  "ula": 52116,
  "ular": 52117,
  "ulate": 52155,
  "ulated": 52156,
  "ulating": 52157,
  "ulation": 52158,
  "ulator": 52159,
  "uld": 52161,
  "uldu\u011funda": 52164,
  "uldu\u011funu": 52166,
  "ule": 52167,
  "ulent": 52168,
  "ulf": 52169,
  "uli": 52170,
  "ullah": 52201,
  "ulmu\u015f": 52202,
  "ult": 52206,
  "ulu": 52225,
  "ulur": 52231,
  "ulusal": 52235,
  "uluslu": 52246,
  "um": 52249,
  "uma": 52255,
  "umble": 52260,
  "umbling": 52261,
  "ume": 52265,
  "umerous": 52266,
  "umi": 52267,
  "ummy": 52273,
  "ump": 52274,
  "umu": 52276,
  "umun": 52280,
  "umuz": 52295,
  "umuza": 52297,
  "umuzu": 52299,
  "umuzun": 52301,
  "un": 52303,
  "una": 52312,
  "uncaya": 52331,
  "uncu": 52349,
  "und": 52351,
  "unda": 52353,
  "undan": 52354,
  "under": 52358,
  "underlying": 52373,
  "understand": 52377,
  "une": 52401,
  "ung": 52428,
  "uni": 52435,
  "unicef": 52439,
  "union": 52458,
  "unit": 52465,
  "until": 52571,
  "unu": 52580,
  "unun": 52583,
  "unuz": 52617,
  "unuza": 52619,
  "unuzda": 52620,
  "unuzu": 52623,
  "unuzun": 52625,
  "uo": 52637,
  "uou": 52638,
  "up": 52639,
  "upload": 52662,
  "uploads": 52667,
  "upon": 52668,
  "ups": 52676,
  "ur": 52682,
  "ura": 52688,
  "ural": 52689,
  "uration": 52693,
  "urb": 52694,
  "urban": 52695,
  "urdu": 52698,
  "ure": 52700,
  "ured": 52703,
  "urg": 52752,
  "urgen": 52755,
  "uri": 52761,
  "uria": 52762,
  "uring": 52766,
  "uristic": 52767,
  "uro": 52772,
  "ursuant": 52774,
  "uru": 52776,
  "urum": 52780,
  "ury": 52807,
  "us": 52808,
  "usa": 52818,
  "use": 52827,
  "used": 52833,
  "user": 52839,
  "ush": 52849,
  "ushi": 52850,
  "using": 52851,
  "uspicious": 52855,
  "uss": 52856,
  "ust": 52860,
  "ustur": 52895,
  "usu": 52896,
  "usually": 52901,
  "ut": 52907,
  "uta": 52910,
  "ute": 52918,
  "uter": 52920,
  "uth": 52922,
  "uthorized": 52923,
  "uthwestern": 52924,
  "ution": 52934,
  "utomated": 52936,
  "utter": 52938,
  "utz": 52944,
  "uv": 52945,
  "ux": 52949,
  "uxiliary": 52950,
  "uydu": 52979,
  "uygu": 53007,
  "uyor": 53076,
  "uz": 53106,
  "uze": 53150,
  "uzz": 53210,
  "u\u00e7": 51951,
  "u\u011fu": 52082,
  "u\u015f": 52815,
  "v": 53211,
  "va": 53215,
  "vac": 53225,
  "vah": 53248,
  "val": 53277,
  "valent": 53280,
  "valid": 53289,
  "valuation": 53300,
  "value": 53302,
  "van": 53319,
  "var": 53337,
  "vari": 53345,
  "vas": 53402,
  "vascular": 53404,
  "vasi": 53407,
  "vask\u00fcler": 53412,
  "vat": 53414,
  "vaz": 53436,
  "ve": 53450,
  "vel": 53480,
  "ven": 53486,
  "vending": 53490,
  "venous": 53506,
  "vent": 53507,
  "ventil": 53510,
  "ventricular": 53513,
  "ver": 53521,
  "verdi": 53532,
  "verir": 53640,
  "vers": 53697,
  "verse": 53702,
  "version": 53707,
  "vert": 53717,
  "very": 53721,
  "ves": 53726,
  "vestigative": 53733,
  "vet": 53734,
  "vey": 53745,
  "veya": 53746,
  "vi": 53751,
  "via": 53757,
  "vic": 53772,
  "vice": 53777,
  "vid": 53794,
  "video": 53800,
  "vie": 53813,
  "view": 53818,
  "vig": 53832,
  "vik": 53838,
  "vil": 53842,
  "villa": 53845,
  "ville": 53856,
  "vin": 53860,
  "vine": 53867,
  "ving": 53872,
  "violence": 53886,
  "violent": 53889,
  "violet": 53892,
  "vious": 53895,
  "vir": 53898,
  "virus": 53911,
  "vir\u00fcs": 53914,
  "vis": 53921,
  "visibility": 53929,
  "vision": 53933,
  "visit": 53938,
  "vista": 53952,
  "vit": 53959,
  "vitamin": 53964,
  "viv": 53975,
  "viz": 53980,
  "vizyon": 53985,
  "vi\u00e7": 53774,
  "vo": 53994,
  "vocation": 54001,
  "voice": 54007,
  "voicing": 54011,
  "void": 54012,
  "voking": 54015,
  "vol": 54016,
  "voltage": 54037,
  "volume": 54045,
  "voluntary": 54050,
  "von": 54061,
  "vor": 54063,
  "vr": 54083,
  "vra": 54086,
  "vu": 54089,
  "vur": 54113,
  "vy": 54134,
  "v\u00e2": 53220,
  "w": 54136,
  "wa": 54140,
  "wage": 54147,
  "wah": 54155,
  "wai": 54156,
  "wait": 54159,
  "wal": 54173,
  "wald": 54175,
  "walk": 54177,
  "wall": 54187,
  "wan": 54205,
  "wang": 54211,
  "war": 54223,
  "ward": 54228,
  "ware": 54233,
  "was": 54267,
  "wash": 54272,
  "washing": 54277,
  "watch": 54288,
  "water": 54299,
  "watt": 54310,
  "wave": 54314,
  "way": 54323,
  "ways": 54329,
  "we": 54334,
  "wealth": 54349,
  "weapon": 54354,
  "wear": 54359,
  "weather": 54363,
  "web": 54369,
  "wed": 54387,
  "wee": 54391,
  "week": 54392,
  "wei": 54403,
  "weight": 54408,
  "wel": 54413,
  "welcome": 54415,
  "well": 54430,
  "wen": 54441,
  "went": 54444,
  "wer": 54447,
  "west": 54453,
  "western": 54457,
  "what": 54469,
  "wheel": 54482,
  "when": 54488,
  "where": 54496,
  "whether": 54508,
  "whi": 54510,
  "which": 54512,
  "while": 54519,
  "white": 54539,
  "who": 54546,
  "why": 54574,
  "wi": 54579,
  "wich": 54583,
  "wick": 54584,
  "wide": 54588,
  "width": 54600,
  "wife": 54604,
  "will": 54627,
  "win": 54642,
  "wind": 54648,
  "wing": 54663,
  "winning": 54670,
  "winter": 54676,
  "wiping": 54683,
  "wire": 54684,
  "wise": 54696,
  "wish": 54701,
  "wit": 54707,
  "witch": 54709,
  "with": 54713,
  "without": 54725,
  "wl": 54739,
  "wn": 54740,
  "wo": 54741,
  "wolf": 54748,
  "woman": 54756,
  "women": 54761,
  "won": 54765,
  "woo": 54778,
  "wood": 54781,
  "word": 54793,
  "work": 54802,
  "worker": 54809,
  "workers": 54811,
  "working": 54816,
  "world": 54833,
  "worm": 54840,
  "wort": 54860,
  "worth": 54861,
  "worthiness": 54864,
  "worthy": 54867,
  "would": 54869,
  "woven": 54880,
  "wp": 54886,
  "write": 54908,
  "writer": 54912,
  "writing": 54917,
  "written": 54921,
  "wrong": 54924,
  "ws": 54933,
  "wu": 54936,
  "ww": 54939,
  "www": 54943,
  "wyn": 54947,
  "x": 54950,
  "xa": 54954,
  "xi": 54962,
  "xiang": 54965,
  "xin": 54968,
  "xing": 54970,
  "xplanatory": 54977,
  "xx": 54982,
  "xxx": 54985,
  "xy": 54990,
  "y": 54991,
  "ya": 54996,
  "yabilir": 55008,
  "yabilirsiniz": 55009,
  "yacak": 55018,
  "yacaklar": 55019,
  "yacaks\u0131n": 55020,
  "yacaks\u0131n\u0131z": 55021,
  "yacakt\u0131": 55022,
  "yacakt\u0131r": 55023,
  "yaca\u011f\u0131": 55010,
  "yaca\u011f\u0131m": 55011,
  "yaca\u011f\u0131na": 55012,
  "yaca\u011f\u0131ndan": 55013,
  "yaca\u011f\u0131n\u0131": 55014,
  "yaca\u011f\u0131n\u0131z": 55015,
  "yaca\u011f\u0131n\u0131z\u0131": 55016,
  "yaca\u011f\u0131z": 55017,
  "yahoo": 55042,
  "yakla\u015f\u0131k": 55107,
  "yak\u0131t": 55101,
  "yal": 55126,
  "yaln\u0131zca": 55142,
  "yal\u0131": 55133,
  "yal\u0131m": 55134,
  "yama": 55149,
  "yan": 55153,
  "yang": 55160,
  "yani": 55164,
  "yanlar": 55196,
  "yanl\u0131\u015f": 55198,
  "yap": 55218,
  "yap\u0131": 55289,
  "yar": 55456,
  "yarak": 55463,
  "yard": 55533,
  "yard\u0131m": 55538,
  "yar\u0131": 55559,
  "yat": 55716,
  "yazar": 55819,
  "yazma": 55875,
  "yaz\u0131": 55839,
  "ya\u011f": 55027,
  "ya\u015fam": 55624,
  "ya\u015fayabilirsiniz": 55671,
  "ydi": 55885,
  "ydim": 55888,
  "ydu": 55890,
  "yd\u00fc": 55891,
  "yd\u0131": 55886,
  "yd\u0131k": 55887,
  "yd\u0131m": 55889,
  "ye": 55892,
  "yeah": 55899,
  "year": 55904,
  "yebilir": 55913,
  "yecek": 55919,
  "yecektir": 55920,
  "yece\u011fi": 55914,
  "yece\u011fim": 55915,
  "yece\u011fini": 55916,
  "yece\u011finiz": 55917,
  "yece\u011fiz": 55918,
  "yel": 55936,
  "yelim": 55939,
  "yellow": 55944,
  "yemeyiz": 55971,
  "yen": 55975,
  "yeni": 55980,
  "yenler": 56003,
  "yeong": 56006,
  "yer": 56010,
  "yerek": 56024,
  "yes": 56077,
  "yet": 56088,
  "yev": 56150,
  "ye\u015fil": 56082,
  "yi": 56151,
  "yim": 56231,
  "yin": 56233,
  "ying": 56240,
  "yip": 56241,
  "yiz": 56265,
  "yken": 56267,
  "yl": 56268,
  "yla": 56270,
  "yle": 56271,
  "ymi\u015f": 56273,
  "ymu\u015f": 56275,
  "ym\u0131\u015f": 56274,
  "yn": 56276,
  "yne": 56278,
  "yo": 56280,
  "yok": 56300,
  "yol": 56320,
  "yolu": 56354,
  "yon": 56366,
  "yonel": 56375,
  "yor": 56459,
  "yordu": 56463,
  "yorlar": 56472,
  "yorlard\u0131": 56473,
  "yorsun": 56474,
  "yorsunuz": 56475,
  "yorum": 56479,
  "yoruz": 56493,
  "yosun": 56495,
  "you": 56496,
  "young": 56501,
  "your": 56508,
  "yp": 56521,
  "yr": 56524,
  "ys": 56526,
  "ysa": 56528,
  "ysan": 56529,
  "ysan\u0131z": 56530,
  "yse": 56531,
  "ysen": 56532,
  "yseniz": 56533,
  "yu": 56534,
  "yuan": 56540,
  "yum": 56620,
  "yun": 56632,
  "yurt": 56649,
  "yuz": 56706,
  "yy": 56756,
  "y\u00e2": 55002,
  "y\u00f6n": 56368,
  "y\u00fc": 56539,
  "y\u00fck": 56551,
  "y\u00fcksek": 56580,
  "y\u00fcm": 56622,
  "y\u00fcz": 56707,
  "y\u00fczde": 56712,
  "y\u00fczy\u0131l": 56747,
  "y\u0131": 56154,
  "y\u0131c\u0131": 56155,
  "y\u0131l": 56179,
  "y\u0131ld\u0131z": 56194,
  "y\u0131m": 56232,
  "y\u0131n": 56236,
  "y\u0131p": 56242,
  "y\u0131z": 56266,
  "z": 56758,
  "za": 56762,
  "zak": 56773,
  "zaki": 56775,
  "zaman": 56779,
  "zan": 56812,
  "zar": 56819,
  "ze": 56845,
  "zed": 56852,
  "zel": 56866,
  "zen": 56871,
  "zer": 56880,
  "zero": 56882,
  "zh": 56895,
  "zhen": 56900,
  "zhi": 56903,
  "zhou": 56906,
  "zi": 56909,
  "zia": 56911,
  "zie": 56912,
  "zier": 56913,
  "zik": 56924,
  "zil": 56926,
  "zin": 56930,
  "zing": 56941,
  "zio": 56942,
  "zip": 56945,
  "zir": 56951,
  "zit": 56963,
  "zlar": 56978,
  "zmir": 56979,
  "zo": 56980,
  "zon": 56990,
  "zone": 56991,
  "zoo": 56996,
  "zor": 57001,
  "zu": 57042,
  "zy": 57052,
  "zyon": 57053,
  "zz": 57054,
  "zza": 57056,
  "zzle": 57057,
  "zzo": 57058,
  "z\u00e2": 56765,
  "\u00ad": 10,
  "\u00bb": 63,
  "\u00c7": 9562,
  "\u00c7A": 9571,
  "\u00c7E": 10280,
  "\u00c7I": 10982,
  "\u00c7al\u0131\u015fma": 9735,
  "\u00c7ek": 10302,
  "\u00c7erezler": 10480,
  "\u00c7evre": 10569,
  "\u00c7ift": 11014,
  "\u00c7in": 11179,
  "\u00c7ocuk": 11582,
  "\u00c7ocuklar": 11587,
  "\u00c7ok": 11668,
  "\u00c7o\u011fu": 11638,
  "\u00c7\u00fcnk\u00fc": 13115,
  "\u00c7\u0131k\u0131\u015f": 11108,
  "\u00d6": 36619,
  "\u00d6R": 38020,
  "\u00d6l\u00fcm": 37498,
  "\u00d6nce": 37689,
  "\u00d6nceki": 37694,
  "\u00d6nemli": 37734,
  "\u00d6rne\u011fin": 38204,
  "\u00d6yle": 38598,
  "\u00d6yleyse": 38605,
  "\u00d6zel": 38696,
  "\u00d6zellikle": 38711,
  "\u00d6zg\u00fcr": 38737,
  "\u00d6\u011fr": 36938,
  "\u00d6\u011frenci": 36950,
  "\u00dc": 51928,
  "\u00dcL": 52115,
  "\u00dcM": 52254,
  "\u00dcN": 52311,
  "\u00dcR": 52687,
  "\u00dcZ": 53111,
  "\u00dclke": 52172,
  "\u00dcniversite": 52491,
  "\u00dcretici": 52710,
  "\u00dcr\u00fcn": 52782,
  "\u00dcst": 52864,
  "\u00dc\u00e7": 51956,
  "\u00dc\u015e": 52817,
  "\u00e2": 2139,
  "\u00e2b": 2153,
  "\u00e2f": 2964,
  "\u00e2h": 3159,
  "\u00e2l": 3391,
  "\u00e2li": 3581,
  "\u00e2l\u00e2": 3394,
  "\u00e2m": 3874,
  "\u00e2n": 4042,
  "\u00e2ne": 4172,
  "\u00e2r": 4701,
  "\u00e2t": 5436,
  "\u00e2z\u0131": 6038,
  "\u00e7": 9560,
  "\u00e7a": 9570,
  "\u00e7al\u0131\u015fma": 9733,
  "\u00e7ay": 10241,
  "\u00e7e": 10277,
  "\u00e7ek": 10300,
  "\u00e7ekim": 10329,
  "\u00e7evre": 10567,
  "\u00e7e\u015fitli": 10524,
  "\u00e7i": 10981,
  "\u00e7ift": 11012,
  "\u00e7iler": 11157,
  "\u00e7ilik": 11167,
  "\u00e7o": 11519,
  "\u00e7ocuk": 11580,
  "\u00e7ok": 11666,
  "\u00e7o\u011fu": 11636,
  "\u00e7u": 13045,
  "\u00e7uk": 13070,
  "\u00e7\u00fc": 13047,
  "\u00e7\u00fcnk\u00fc": 13113,
  "\u00e7\u0131": 10984,
  "\u00e7\u0131karabilirsiniz": 11072,
  "\u00e7\u0131lar": 11143,
  "\u00e7\u0131l\u0131k": 11169,
  "\u00ee": 25183,
  "\u00eem": 25888,
  "\u00f6": 36617,
  "\u00f6k": 37052,
  "\u00f6l": 37140,
  "\u00f6l\u00fcm": 37496,
  "\u00f6n": 37657,
  "\u00f6nce": 37687,
  "\u00f6n\u00fc": 37836,
  "\u00f6r": 38018,
  "\u00f6rne\u011fin": 38202,
  "\u00f6r\u00fc": 38274,
  "\u00f6r\u00fcn": 38280,
  "\u00f6tesi": 38350,
  "\u00f6yle": 38596,
  "\u00f6z": 38688,
  "\u00f6zel": 38694,
  "\u00f6zellikle": 38709,
  "\u00f6zenle": 38725,
  "\u00f6zg\u00fcr": 38735,
  "\u00f6z\u00fc": 38761,
  "\u00f6\u011f": 36913,
  "\u00f6\u011frenebilirsiniz": 36975,
  "\u00f6\u011fretim": 37002,
  "\u00fc": 51926,
  "\u00fcb": 51938,
  "\u00fccretli": 51990,
  "\u00fccretlidir": 51993,
  "\u00fccretsiz": 51994,
  "\u00fcc\u00fc": 52003,
  "\u00fcd\u00fcr": 52031,
  "\u00fcf": 52037,
  "\u00fck": 52100,
  "\u00fcl": 52114,
  "\u00fclasyon": 52154,
  "\u00fcld\u00fc": 52162,
  "\u00fcld\u00fc\u011f\u00fc": 52163,
  "\u00fcld\u00fc\u011f\u00fcnde": 52165,
  "\u00fclm\u00fc\u015f": 52203,
  "\u00fclm\u00fc\u015ft\u00fcr": 52204,
  "\u00fcl\u00fc": 52229,
  "\u00fcl\u00fcr": 52232,
  "\u00fcl\u00fcyor": 52248,
  "\u00fcm": 52253,
  "\u00fcm\u00fc": 52277,
  "\u00fcm\u00fcz": 52296,
  "\u00fcm\u00fczde": 52298,
  "\u00fcm\u00fcz\u00fc": 52300,
  "\u00fcm\u00fcz\u00fcn": 52302,
  "\u00fcn": 52309,
  "\u00fcnc\u00fc": 52350,
  "\u00fcnde": 52355,
  "\u00fcnden": 52356,
  "\u00fcne": 52402,
  "\u00fcn\u00fc": 52582,
  "\u00fcn\u00fcn": 52584,
  "\u00fcn\u00fcz": 52618,
  "\u00fcn\u00fczde": 52621,
  "\u00fcn\u00fcze": 52622,
  "\u00fcn\u00fcz\u00fc": 52624,
  "\u00fcn\u00fcz\u00fcn": 52626,
  "\u00fcp": 52645,
  "\u00fcr": 52685,
  "\u00fcre": 52702,
  "\u00fcr\u00fc": 52778,
  "\u00fcs": 52813,
  "\u00fcst": 52862,
  "\u00fcst\u00fc": 52882,
  "\u00fcs\u00fc": 52898,
  "\u00fct": 52909,
  "\u00fcyor": 53077,
  "\u00fcyorsun": 53078,
  "\u00fcyorum": 53079,
  "\u00fcyoruz": 53080,
  "\u00fcz": 53109,
  "\u00fczer": 53151,
  "\u00fcz\u00fcn": 53201,
  "\u00fc\u00e7": 51954,
  "\u00fc\u011f\u00fc": 52083,
  "\u00fc\u015f": 52816,
  "\u00fc\u015f\u00fc": 52899,
  "\u00fd": 54995,
  "\u00fdn": 56277,
  "\u00fdn\u00fd": 56279,
  "\u011f": 20793,
  "\u011fa": 20800,
  "\u011fe": 21007,
  "\u011ferlendirilmesi": 21572,
  "\u011fi": 21698,
  "\u011fim": 21783,
  "\u011fimiz": 21786,
  "\u011fin": 21789,
  "\u011finde": 21795,
  "\u011fine": 21797,
  "\u011fini": 21802,
  "\u011finiz": 21804,
  "\u011fu": 22898,
  "\u011funu": 23096,
  "\u011f\u00fc": 22902,
  "\u011f\u0131": 21700,
  "\u011f\u0131m": 21784,
  "\u011f\u0131na": 21792,
  "\u011f\u0131nda": 21793,
  "\u011f\u0131ndan": 21794,
  "\u011f\u0131n\u0131": 21803,
  "\u011f\u0131n\u0131z": 21805,
  "\u0130": 25185,
  "\u0130B": 25203,
  "\u0130C\u0130": 25308,
  "\u0130D": 25373,
  "\u0130HA": 25520,
  "\u0130K": 25574,
  "\u0130L": 25629,
  "\u0130LER": 25689,
  "\u0130L\u0130": 25756,
  "\u0130M": 25891,
  "\u0130M\u0130Z": 25944,
  "\u0130N": 26110,
  "\u0130NDE": 26270,
  "\u0130NE": 26366,
  "\u0130N\u0130": 26482,
  "\u0130N\u0130Z": 26502,
  "\u0130P": 26969,
  "\u0130R": 27001,
  "\u0130S": 27080,
  "\u0130ST": 27375,
  "\u0130S\u0130": 27153,
  "\u0130T": 27568,
  "\u0130T\u0130M": 27614,
  "\u0130YA": 27666,
  "\u0130YE": 27669,
  "\u0130YOR": 27708,
  "\u0130Z": 27728,
  "\u0130ki": 25584,
  "\u0130kinci": 25591,
  "\u0130leti\u015fim": 25717,
  "\u0130lk": 25800,
  "\u0130nan": 26121,
  "\u0130nanc\u0131": 26129,
  "\u0130ngiliz": 26453,
  "\u0130ngilizce": 26456,
  "\u0130ngiltere": 26459,
  "\u0130nsan": 26579,
  "\u0130nsanlar": 26593,
  "\u0130nsanlar\u0131n": 26602,
  "\u0130nternet": 26814,
  "\u0130ran": 27009,
  "\u0130sa": 27092,
  "\u0130slam": 27236,
  "\u0130spanyol": 27336,
  "\u0130srail": 27349,
  "\u0130stanbul": 27384,
  "\u0130ste": 27401,
  "\u0130talya": 27578,
  "\u0130yi": 27676,
  "\u0130\u00e7": 25233,
  "\u0130\u00e7ecek": 25253,
  "\u0130\u00e7eri": 25270,
  "\u0130\u015e": 27088,
  "\u0130\u015f": 27086,
  "\u0130\u015faya": 27110,
  "\u0130\u015fte": 27404,
  "\u0131": 25184,
  "\u0131c\u0131": 25307,
  "\u0131d\u0131r": 25430,
  "\u0131k": 25573,
  "\u0131l": 25627,
  "\u0131labilecek": 25634,
  "\u0131labilece\u011fi": 25633,
  "\u0131labilir": 25635,
  "\u0131lacak": 25640,
  "\u0131lacakt\u0131r": 25641,
  "\u0131laca\u011f\u0131": 25638,
  "\u0131laca\u011f\u0131n\u0131": 25639,
  "\u0131lamayacak": 25652,
  "\u0131lamaz": 25653,
  "\u0131lan": 25655,
  "\u0131larak": 25658,
  "\u0131ld\u0131": 25665,
  "\u0131ld\u0131\u011f\u0131": 25667,
  "\u0131ld\u0131\u011f\u0131nda": 25668,
  "\u0131ld\u0131\u011f\u0131n\u0131": 25671,
  "\u0131lmad\u0131": 25846,
  "\u0131lmak": 25847,
  "\u0131lmaktad\u0131r": 25848,
  "\u0131lmal\u0131": 25849,
  "\u0131lmal\u0131d\u0131r": 25850,
  "\u0131lmam\u0131\u015f": 25851,
  "\u0131lmas\u0131": 25852,
  "\u0131lmaya": 25853,
  "\u0131lmayacak": 25854,
  "\u0131lmaz": 25855,
  "\u0131lm\u0131yor": 25875,
  "\u0131lm\u0131\u015f": 25870,
  "\u0131lm\u0131\u015ft\u0131": 25871,
  "\u0131lm\u0131\u015ft\u0131r": 25873,
  "\u0131ls\u0131n": 25877,
  "\u0131l\u0131nca": 25760,
  "\u0131l\u0131p": 25763,
  "\u0131l\u0131r": 25765,
  "\u0131l\u0131yor": 25796,
  "\u0131l\u0131\u015f\u0131": 25767,
  "\u0131m": 25889,
  "\u0131ma": 25894,
  "\u0131mda": 25927,
  "\u0131m\u0131": 25936,
  "\u0131m\u0131n": 25938,
  "\u0131m\u0131z": 25943,
  "\u0131m\u0131za": 25945,
  "\u0131m\u0131z\u0131": 25949,
  "\u0131m\u0131z\u0131n": 25951,
  "\u0131n": 26108,
  "\u0131na": 26113,
  "\u0131nca": 26175,
  "\u0131ncaya": 26180,
  "\u0131nda": 26267,
  "\u0131ndan": 26268,
  "\u0131nd\u0131r": 26314,
  "\u0131n\u0131": 26481,
  "\u0131n\u0131n": 26484,
  "\u0131n\u0131z": 26501,
  "\u0131n\u0131za": 26503,
  "\u0131n\u0131zda": 26504,
  "\u0131n\u0131z\u0131": 26510,
  "\u0131n\u0131z\u0131n": 26512,
  "\u0131p": 26967,
  "\u0131r": 27000,
  "\u0131rd\u0131": 27017,
  "\u0131rken": 27033,
  "\u0131rlar": 27037,
  "\u0131rsa": 27065,
  "\u0131rs\u0131n\u0131z": 27067,
  "\u0131r\u0131m": 27024,
  "\u0131r\u0131z": 27028,
  "\u0131s\u0131": 27151,
  "\u0131t": 27567,
  "\u0131yla": 27698,
  "\u0131yor": 27707,
  "\u0131yordu": 27710,
  "\u0131yorlar": 27712,
  "\u0131yorlard\u0131": 27713,
  "\u0131yorsun": 27715,
  "\u0131yorsunuz": 27717,
  "\u0131yorum": 27719,
  "\u0131yoruz": 27721,
  "\u0131z": 27726,
  "\u0131\u00e7": 25232,
  "\u0131\u011f\u0131": 25501,
  "\u0131\u011f\u0131n": 25502,
  "\u0131\u015f": 27085,
  "\u0131\u015ft\u0131r": 27523,
  "\u0131\u015f\u0131": 27154,
  "\u0131\u015f\u0131k": 27164,
  "\u0131\u015f\u0131n\u0131": 27197,
  "\u015e": 43748,
  "\u015eehir": 45033,
  "\u015eimdi": 46187,
  "\u015eirket": 46384,
  "\u015eu": 48296,
  "\u015e\u00fcphesiz": 48620,
  "\u015f": 43746,
  "\u015fa": 43756,
  "\u015fak": 44027,
  "\u015fan": 44185,
  "\u015far": 44315,
  "\u015farj": 44341,
  "\u015fe": 44791,
  "\u015fehir": 45031,
  "\u015fek": 45062,
  "\u015fen": 45201,
  "\u015fer": 45326,
  "\u015fey": 45609,
  "\u015fi": 45952,
  "\u015fim": 46183,
  "\u015fimdi": 46185,
  "\u015fir": 46352,
  "\u015firket": 46382,
  "\u015fma": 46737,
  "\u015ftur": 48275,
  "\u015ft\u0131": 47984,
  "\u015ft\u0131r": 48018,
  "\u015fu": 48294,
  "\u015f\u00e2": 43760,
  "\u015f\u0131": 45957,
  "\u015f\u0131k": 46092,
  "\u015f\u0131r": 46355,
  "\u015f\u0131\u011f\u0131": 46041,
  "\u2018": 47,
  "\u2019": 48,
  "\u201c": 58,
  "\u201d": 59,
  "\u201d)": 62,
  "\u201d.": 61,
  "\u201d?": 60,
  "\u2581": 90,
  "\u2581!": 112,
  "\u2581!!": 113,
  "\u2581!!!": 114,
  "\u2581\"": 124,
  "\u2581\"[": 125,
  "\u2581#": 152,
  "\u2581##": 153,
  "\u2581#1": 319,
  "\u2581#2": 845,
  "\u2581#3": 1232,
  "\u2581$": 145,
  "\u2581$0": 168,
  "\u2581$1": 318,
  "\u2581$1,000": 366,
  "\u2581$10": 343,
  "\u2581$10,000": 372,
  "\u2581$100": 358,
  "\u2581$100,000": 376,
  "\u2581$12": 451,
  "\u2581$15": 567,
  "\u2581$150": 580,
  "\u2581$2": 844,
  "\u2581$20": 867,
  "\u2581$20,000": 890,
  "\u2581$200": 879,
  "\u2581$25": 1132,
  "\u2581$250": 1144,
  "\u2581$3": 1231,
  "\u2581$30": 1251,
  "\u2581$300": 1263,
  "\u2581$35": 1355,
  "\u2581$4": 1445,
  "\u2581$40": 1461,
  "\u2581$400": 1471,
  "\u2581$5": 1606,
  "\u2581$5,000": 1639,
  "\u2581$50": 1622,
  "\u2581$50,000": 1644,
  "\u2581$500": 1634,
  "\u2581$6": 1728,
  "\u2581$60": 1741,
  "\u2581$7": 1831,
  "\u2581$8": 1935,
  "\u2581$9": 2040,
  "\u2581%": 154,
  "\u2581%1": 320,
  "\u2581%10": 344,
  "\u2581%100": 359,
  "\u2581%15": 568,
  "\u2581%2": 846,
  "\u2581%20": 868,
  "\u2581%25": 1133,
  "\u2581%30": 1252,
  "\u2581%40": 1462,
  "\u2581%5": 1607,
  "\u2581%50": 1623,
  "\u2581%60": 1742,
  "\u2581%70": 1843,
  "\u2581%80": 1946,
  "\u2581%90": 2050,
  "\u2581%99": 2122,
  "\u2581&": 151,
  "\u2581'": 119,
  "\u2581''": 120,
  "\u2581(": 131,
  "\u2581(\"": 133,
  "\u2581($": 135,
  "\u2581(%": 136,
  "\u2581(+": 137,
  "\u2581(...)": 132,
  "\u2581(0": 166,
  "\u2581(0)": 167,
  "\u2581(1": 315,
  "\u2581(1)": 316,
  "\u2581(10": 341,
  "\u2581(10)": 342,
  "\u2581(100": 357,
  "\u2581(11": 407,
  "\u2581(11)": 408,
  "\u2581(12": 449,
  "\u2581(12)": 450,
  "\u2581(13": 495,
  "\u2581(13)": 496,
  "\u2581(14": 531,
  "\u2581(14)": 532,
  "\u2581(15": 565,
  "\u2581(15)": 566,
  "\u2581(16": 606,
  "\u2581(16)": 607,
  "\u2581(17": 632,
  "\u2581(17)": 633,
  "\u2581(18": 658,
  "\u2581(18)": 659,
  "\u2581(18+)": 660,
  "\u2581(19": 702,
  "\u2581(19)": 703,
  "\u2581(1998)": 827,
  "\u2581(1999)": 830,
  "\u2581(2": 841,
  "\u2581(2)": 842,
  "\u2581(20": 865,
  "\u2581(20)": 866,
  "\u2581(2000)": 884,
  "\u2581(2001)": 898,
  "\u2581(2002)": 903,
  "\u2581(2003)": 907,
  "\u2581(2004)": 912,
  "\u2581(2005)": 917,
  "\u2581(2006)": 923,
  "\u2581(2007)": 929,
  "\u2581(2008)": 935,
  "\u2581(2009)": 942,
  "\u2581(2010)": 950,
  "\u2581(2011)": 956,
  "\u2581(2012)": 963,
  "\u2581(2013)": 970,
  "\u2581(2014)": 976,
  "\u2581(2015)": 985,
  "\u2581(2016)": 994,
  "\u2581(2017)": 1003,
  "\u2581(2018)": 1013,
  "\u2581(2019)": 1021,
  "\u2581(21": 1054,
  "\u2581(21)": 1055,
  "\u2581(22": 1074,
  "\u2581(22)": 1075,
  "\u2581(23": 1093,
  "\u2581(23)": 1094,
  "\u2581(24": 1113,
  "\u2581(24)": 1114,
  "\u2581(25": 1130,
  "\u2581(25)": 1131,
  "\u2581(26": 1160,
  "\u2581(26)": 1161,
  "\u2581(27)": 1179,
  "\u2581(28)": 1195,
  "\u2581(29": 1210,
  "\u2581(29)": 1211,
  "\u2581(3": 1228,
  "\u2581(3)": 1229,
  "\u2581(30": 1249,
  "\u2581(30)": 1250,
  "\u2581(31)": 1289,
  "\u2581(33)": 1320,
  "\u2581(35)": 1354,
  "\u2581(39)": 1425,
  "\u2581(4": 1442,
  "\u2581(4)": 1443,
  "\u2581(40)": 1460,
  "\u2581(5": 1603,
  "\u2581(5)": 1604,
  "\u2581(50": 1621,
  "\u2581(6": 1726,
  "\u2581(6)": 1727,
  "\u2581(60": 1740,
  "\u2581(7": 1829,
  "\u2581(7)": 1830,
  "\u2581(8": 1933,
  "\u2581(8)": 1934,
  "\u2581(9": 2038,
  "\u2581(9)": 2039,
  "\u2581(\u201c": 134,
  "\u2581)": 138,
  "\u2581*": 146,
  "\u2581**": 147,
  "\u2581***": 148,
  "\u2581****": 149,
  "\u2581*****": 150,
  "\u2581+": 155,
  "\u2581+/-": 156,
  "\u2581+1": 321,
  "\u2581+18": 661,
  "\u2581+31": 1290,
  "\u2581+36": 1377,
  "\u2581+38063": 1412,
  "\u2581+385": 1417,
  "\u2581+39": 1426,
  "\u2581+41": 1490,
  "\u2581+420": 1507,
  "\u2581+43": 1517,
  "\u2581+44": 1530,
  "\u2581+46": 1557,
  "\u2581+48": 1576,
  "\u2581+49": 1587,
  "\u2581+86": 2004,
  "\u2581+90": 2051,
  "\u2581,": 104,
  "\u2581-": 100,
  "\u2581--": 102,
  "\u2581---": 103,
  "\u2581->": 101,
  "\u2581...": 118,
  "\u2581/": 116,
  "\u2581//": 117,
  "\u25810": 165,
  "\u25810%": 170,
  "\u25810)": 169,
  "\u25810,2": 225,
  "\u25810,3": 235,
  "\u25810,5": 255,
  "\u25810.0": 176,
  "\u25810.00": 182,
  "\u25810.01": 197,
  "\u25810.1": 213,
  "\u25810.2": 226,
  "\u25810.3": 236,
  "\u25810.4": 244,
  "\u25810.5": 256,
  "\u25810.6": 265,
  "\u25810.7": 274,
  "\u25810.75": 279,
  "\u25810.8": 284,
  "\u25810.9": 293,
  "\u258100": 174,
  "\u2581000": 181,
  "\u25810086": 207,
  "\u258100:00": 188,
  "\u258101": 212,
  "\u258102": 224,
  "\u258103": 234,
  "\u258104": 243,
  "\u258105": 254,
  "\u258105:00": 259,
  "\u258106": 264,
  "\u258107": 273,
  "\u258107:00": 276,
  "\u258108": 283,
  "\u258108:00": 288,
  "\u258109": 292,
  "\u258109:00": 297,
  "\u25811": 314,
  "\u25811%": 328,
  "\u25811'": 326,
  "\u25811)": 327,
  "\u25811,": 323,
  "\u25811,000": 367,
  "\u25811,2": 453,
  "\u25811,200": 466,
  "\u25811,400": 544,
  "\u25811,5": 569,
  "\u25811,500": 583,
  "\u25811,800": 670,
  "\u25811-": 322,
  "\u25811-2": 452,
  "\u25811-3": 497,
  "\u25811.": 325,
  "\u25811.0": 345,
  "\u25811.000": 368,
  "\u25811.1": 410,
  "\u25811.2": 455,
  "\u25811.3": 499,
  "\u25811.4": 534,
  "\u25811.5": 570,
  "\u25811.6": 608,
  "\u25811.7": 634,
  "\u25811.8": 662,
  "\u25811.9": 704,
  "\u25811/2": 454,
  "\u25811/3": 498,
  "\u25811/4": 533,
  "\u258110": 340,
  "\u258110%": 348,
  "\u258110'": 347,
  "\u258110,000": 373,
  "\u258110-": 346,
  "\u258110-15": 382,
  "\u258110.000": 374,
  "\u258110.1": 381,
  "\u2581100": 356,
  "\u2581100%": 361,
  "\u2581100'": 360,
  "\u2581100,000": 377,
  "\u2581100.000": 378,
  "\u25811000": 365,
  "\u258110000": 371,
  "\u2581101": 380,
  "\u2581102": 384,
  "\u2581103": 387,
  "\u2581104": 389,
  "\u2581105": 391,
  "\u2581106": 393,
  "\u2581107": 395,
  "\u2581108": 397,
  "\u25811080": 398,
  "\u2581109": 400,
  "\u258110:00": 369,
  "\u258111": 406,
  "\u258111%": 413,
  "\u258111,": 411,
  "\u258111,000": 422,
  "\u258111.": 412,
  "\u2581110": 418,
  "\u25811100": 420,
  "\u2581111": 424,
  "\u2581112": 426,
  "\u2581113": 430,
  "\u2581114": 432,
  "\u2581115": 434,
  "\u2581116": 436,
  "\u2581117": 438,
  "\u2581118": 439,
  "\u2581119": 441,
  "\u258111:00": 421,
  "\u258112": 448,
  "\u258112%": 457,
  "\u258112,000": 468,
  "\u258112-": 456,
  "\u2581120": 463,
  "\u25811200": 465,
  "\u2581121": 470,
  "\u2581122": 471,
  "\u2581123": 475,
  "\u2581124": 478,
  "\u2581125": 480,
  "\u25811250": 481,
  "\u2581126": 483,
  "\u2581127": 485,
  "\u2581128": 487,
  "\u2581129": 489,
  "\u258112:00": 467,
  "\u258113": 494,
  "\u258113,": 500,
  "\u258113.": 501,
  "\u2581130": 505,
  "\u25811300": 506,
  "\u2581131": 509,
  "\u2581132": 510,
  "\u2581133": 511,
  "\u2581134": 513,
  "\u2581135": 516,
  "\u2581136": 518,
  "\u2581137": 520,
  "\u2581138": 522,
  "\u2581139": 524,
  "\u258113:00": 507,
  "\u258114": 530,
  "\u258114,": 535,
  "\u258114.": 536,
  "\u2581140": 541,
  "\u25811400": 543,
  "\u258114001": 547,
  "\u2581144": 551,
  "\u2581145": 553,
  "\u2581146": 554,
  "\u2581147": 556,
  "\u2581148": 557,
  "\u2581149": 558,
  "\u258114:00": 545,
  "\u258115": 564,
  "\u258115%": 572,
  "\u258115,000": 585,
  "\u258115-": 571,
  "\u258115-20": 591,
  "\u258115.000": 586,
  "\u2581150": 579,
  "\u2581150,000": 587,
  "\u25811500": 582,
  "\u2581151": 589,
  "\u2581155": 593,
  "\u2581156": 595,
  "\u2581157": 597,
  "\u258115:00": 584,
  "\u258116": 605,
  "\u258116,": 610,
  "\u258116,000": 618,
  "\u258116-": 609,
  "\u258116.": 611,
  "\u2581160": 616,
  "\u25811600": 617,
  "\u2581165": 620,
  "\u2581168": 624,
  "\u258117": 631,
  "\u258117,": 635,
  "\u258117.": 636,
  "\u2581170": 640,
  "\u25811700": 641,
  "\u2581175": 647,
  "\u2581176": 648,
  "\u258117:00": 642,
  "\u258118": 657,
  "\u258118+": 663,
  "\u2581180": 667,
  "\u25811800": 669,
  "\u25811848": 673,
  "\u2581185": 675,
  "\u25811850": 676,
  "\u25811860": 677,
  "\u25811870": 679,
  "\u25811880": 681,
  "\u25811881": 682,
  "\u25811882": 683,
  "\u25811886": 684,
  "\u25811889": 685,
  "\u25811890": 687,
  "\u25811891": 688,
  "\u25811893": 689,
  "\u25811895": 690,
  "\u25811896": 691,
  "\u25811897": 692,
  "\u25811898": 693,
  "\u25811899": 694,
  "\u258118:00": 671,
  "\u258119": 701,
  "\u258119,": 705,
  "\u258119.": 706,
  "\u2581190": 710,
  "\u25811900": 711,
  "\u25811901": 713,
  "\u25811902": 714,
  "\u25811903": 715,
  "\u25811904": 716,
  "\u25811905": 717,
  "\u25811906": 718,
  "\u25811907": 719,
  "\u25811908": 720,
  "\u25811909": 721,
  "\u25811910": 723,
  "\u25811911": 724,
  "\u25811912": 725,
  "\u25811913": 726,
  "\u25811914": 727,
  "\u25811915": 728,
  "\u25811916": 729,
  "\u25811917": 730,
  "\u25811918": 731,
  "\u25811919": 732,
  "\u2581192": 734,
  "\u25811920": 735,
  "\u25811921": 736,
  "\u25811922": 737,
  "\u25811923": 738,
  "\u25811924": 739,
  "\u25811925": 740,
  "\u25811926": 741,
  "\u25811927": 742,
  "\u25811928": 743,
  "\u25811929": 744,
  "\u25811930": 745,
  "\u25811931": 746,
  "\u25811932": 747,
  "\u25811933": 748,
  "\u25811934": 749,
  "\u25811935": 750,
  "\u25811936": 751,
  "\u25811937": 752,
  "\u25811938": 753,
  "\u25811939": 754,
  "\u25811940": 755,
  "\u25811941": 756,
  "\u25811942": 757,
  "\u25811943": 758,
  "\u25811944": 759,
  "\u25811945": 760,
  "\u25811946": 761,
  "\u25811947": 762,
  "\u25811948": 763,
  "\u25811949": 764,
  "\u25811950": 766,
  "\u25811950'": 767,
  "\u25811951": 768,
  "\u25811952": 769,
  "\u25811953": 770,
  "\u25811954": 771,
  "\u25811955": 772,
  "\u25811956": 773,
  "\u25811957": 774,
  "\u25811958": 775,
  "\u25811959": 776,
  "\u25811960": 778,
  "\u25811960'": 779,
  "\u25811961": 780,
  "\u25811962": 781,
  "\u25811963": 782,
  "\u25811964": 783,
  "\u25811965": 784,
  "\u25811966": 785,
  "\u25811967": 786,
  "\u25811968": 787,
  "\u25811969": 788,
  "\u25811970": 790,
  "\u25811970'": 791,
  "\u25811971": 792,
  "\u25811972": 793,
  "\u25811973": 794,
  "\u25811974": 795,
  "\u25811975": 796,
  "\u25811976": 797,
  "\u25811977": 798,
  "\u25811978": 799,
  "\u25811979": 800,
  "\u25811980": 802,
  "\u25811980'": 803,
  "\u25811980\u2019": 804,
  "\u25811981": 805,
  "\u25811982": 806,
  "\u25811983": 807,
  "\u25811984": 808,
  "\u25811985": 809,
  "\u25811986": 810,
  "\u25811987": 811,
  "\u25811988": 812,
  "\u25811989": 813,
  "\u25811990": 816,
  "\u25811990'": 817,
  "\u25811990\u2019": 818,
  "\u25811991": 819,
  "\u25811992": 820,
  "\u25811993": 821,
  "\u25811994": 822,
  "\u25811995": 823,
  "\u25811996": 824,
  "\u25811997": 825,
  "\u25811998": 826,
  "\u25811998,": 828,
  "\u25811999": 829,
  "\u25811999,": 831,
  "\u258119:00": 712,
  "\u25811:": 324,
  "\u25811:1": 409,
  "\u25812": 840,
  "\u25812%": 853,
  "\u25812'": 850,
  "\u25812)": 851,
  "\u25812*": 852,
  "\u25812,000": 885,
  "\u25812,5": 1134,
  "\u25812,500": 1147,
  "\u25812-": 847,
  "\u25812-3": 1095,
  "\u25812-4": 1115,
  "\u25812.": 849,
  "\u25812.0": 869,
  "\u25812.000": 886,
  "\u25812.1": 1056,
  "\u25812.2": 1076,
  "\u25812.3": 1097,
  "\u25812.4": 1116,
  "\u25812.5": 1135,
  "\u25812.6": 1162,
  "\u25812.7": 1180,
  "\u25812.8": 1196,
  "\u25812/3": 1096,
  "\u258120": 864,
  "\u258120%": 872,
  "\u258120'": 871,
  "\u258120,000": 891,
  "\u258120-": 870,
  "\u258120-30": 1042,
  "\u258120.000": 892,
  "\u2581200": 878,
  "\u2581200,000": 894,
  "\u2581200.000": 895,
  "\u25812000": 883,
  "\u25812000,": 887,
  "\u25812001": 897,
  "\u25812001,": 899,
  "\u25812001.": 900,
  "\u25812002": 902,
  "\u25812002,": 904,
  "\u25812003": 906,
  "\u25812003,": 908,
  "\u25812003.": 909,
  "\u25812004": 911,
  "\u25812004,": 913,
  "\u25812004.": 914,
  "\u25812005": 916,
  "\u25812005'": 920,
  "\u25812005,": 918,
  "\u25812005.": 919,
  "\u25812006": 922,
  "\u25812006'": 926,
  "\u25812006,": 924,
  "\u25812006.": 925,
  "\u25812007": 928,
  "\u25812007'": 932,
  "\u25812007,": 930,
  "\u25812007.": 931,
  "\u25812008": 934,
  "\u25812008'": 938,
  "\u25812008,": 936,
  "\u25812008-2009": 939,
  "\u25812008.": 937,
  "\u25812009": 941,
  "\u25812009'": 945,
  "\u25812009,": 943,
  "\u25812009.": 944,
  "\u2581201": 947,
  "\u25812010": 949,
  "\u25812010'": 953,
  "\u25812010,": 951,
  "\u25812010.": 952,
  "\u25812011": 955,
  "\u25812011'": 959,
  "\u25812011,": 957,
  "\u25812011.": 958,
  "\u25812012": 962,
  "\u25812012'": 966,
  "\u25812012,": 964,
  "\u25812012-2013": 967,
  "\u25812012.": 965,
  "\u25812013": 969,
  "\u25812013'": 973,
  "\u25812013,": 971,
  "\u25812013.": 972,
  "\u25812014": 975,
  "\u25812014'": 979,
  "\u25812014,": 977,
  "\u25812014-2015": 981,
  "\u25812014.": 978,
  "\u25812014\u2019": 980,
  "\u25812015": 984,
  "\u25812015'": 988,
  "\u25812015,": 986,
  "\u25812015-2016": 990,
  "\u25812015.": 987,
  "\u25812015\u2019": 989,
  "\u25812016": 993,
  "\u25812016'": 997,
  "\u25812016,": 995,
  "\u25812016-2017": 999,
  "\u25812016.": 996,
  "\u25812016\u2019": 998,
  "\u25812017": 1002,
  "\u25812017'": 1006,
  "\u25812017,": 1004,
  "\u25812017-2018": 1008,
  "\u25812017.": 1005,
  "\u25812017\u2019": 1007,
  "\u25812018": 1012,
  "\u25812018'": 1016,
  "\u25812018,": 1014,
  "\u25812018.": 1015,
  "\u25812018\u2019": 1017,
  "\u25812019": 1020,
  "\u25812019'": 1023,
  "\u25812019,": 1022,
  "\u25812019-04-": 1025,
  "\u25812019-04-0": 1026,
  "\u25812019-04-1": 1027,
  "\u25812019-04-2": 1028,
  "\u25812019-05-0": 1029,
  "\u25812019\u2019": 1024,
  "\u25812020": 1033,
  "\u25812020'": 1035,
  "\u25812020.": 1034,
  "\u25812021": 1036,
  "\u25812022": 1037,
  "\u25812023": 1038,
  "\u25812025": 1039,
  "\u25812030": 1041,
  "\u25812050": 1045,
  "\u258121": 1053,
  "\u258121%": 1059,
  "\u258121,": 1057,
  "\u258121.": 1058,
  "\u2581210": 1063,
  "\u2581211": 1064,
  "\u2581212": 1067,
  "\u258122": 1073,
  "\u258122,": 1077,
  "\u2581220": 1081,
  "\u2581225": 1084,
  "\u258123": 1092,
  "\u258123,": 1098,
  "\u2581230": 1102,
  "\u258124": 1112,
  "\u258124,": 1118,
  "\u258124-": 1117,
  "\u258124/7": 1123,
  "\u2581240": 1122,
  "\u258125": 1129,
  "\u258125%": 1138,
  "\u258125,": 1137,
  "\u258125,000": 1148,
  "\u258125-": 1136,
  "\u258125-30": 1150,
  "\u2581250": 1143,
  "\u2581250,000": 1149,
  "\u25812500": 1146,
  "\u2581256": 1153,
  "\u258126": 1159,
  "\u258126,": 1163,
  "\u2581260": 1167,
  "\u258127": 1178,
  "\u258127,": 1181,
  "\u2581270": 1184,
  "\u258128": 1194,
  "\u258128,": 1197,
  "\u2581280": 1201,
  "\u258129": 1209,
  "\u258129,": 1212,
  "\u2581290": 1215,
  "\u25812:": 848,
  "\u25813": 1227,
  "\u25813%": 1238,
  "\u25813)": 1236,
  "\u25813*": 1237,
  "\u25813+": 1239,
  "\u25813,000": 1269,
  "\u25813,5": 1357,
  "\u25813-": 1233,
  "\u25813-4": 1337,
  "\u25813-5": 1356,
  "\u25813.": 1235,
  "\u25813.0": 1253,
  "\u25813.1": 1291,
  "\u25813.2": 1306,
  "\u25813.3": 1321,
  "\u25813.4": 1339,
  "\u25813.5": 1358,
  "\u25813.5+": 1359,
  "\u25813.6": 1378,
  "\u25813.7": 1390,
  "\u25813.8": 1406,
  "\u25813/4": 1338,
  "\u258130": 1248,
  "\u258130%": 1255,
  "\u258130,000": 1272,
  "\u258130-": 1254,
  "\u258130.000": 1273,
  "\u2581300": 1262,
  "\u2581300,000": 1275,
  "\u2581300.000": 1276,
  "\u25813000": 1268,
  "\u2581304": 1279,
  "\u258131": 1288,
  "\u258131,": 1292,
  "\u2581312": 1299,
  "\u2581316": 1301,
  "\u258132": 1305,
  "\u258132-": 1307,
  "\u2581320": 1311,
  "\u258133": 1319,
  "\u2581330": 1325,
  "\u258134": 1336,
  "\u2581340": 1343,
  "\u258135": 1353,
  "\u258135%": 1360,
  "\u2581350": 1365,
  "\u258136": 1376,
  "\u2581360": 1382,
  "\u2581365": 1384,
  "\u258137": 1389,
  "\u258138": 1405,
  "\u2581380": 1411,
  "\u258139": 1424,
  "\u25813:": 1234,
  "\u25813:00": 1264,
  "\u25814": 1441,
  "\u25814%": 1451,
  "\u25814)": 1449,
  "\u25814*": 1450,
  "\u25814+": 1452,
  "\u25814,000": 1476,
  "\u25814-": 1446,
  "\u25814-5": 1541,
  "\u25814-6": 1558,
  "\u25814.": 1448,
  "\u25814.0": 1463,
  "\u25814.1": 1491,
  "\u25814.2": 1502,
  "\u25814.3": 1518,
  "\u25814.4": 1531,
  "\u25814.5": 1542,
  "\u25814.5+": 1543,
  "\u25814.6": 1559,
  "\u25814.7": 1566,
  "\u25814.8": 1577,
  "\u258140": 1459,
  "\u258140%": 1464,
  "\u258140,000": 1479,
  "\u2581400": 1470,
  "\u2581400,000": 1481,
  "\u25814000": 1475,
  "\u2581404": 1483,
  "\u258141": 1489,
  "\u258141%": 1492,
  "\u258142": 1501,
  "\u2581420": 1506,
  "\u258143": 1516,
  "\u2581430": 1522,
  "\u258144": 1529,
  "\u2581440": 1534,
  "\u258145": 1540,
  "\u258145%": 1544,
  "\u2581450": 1549,
  "\u258146": 1556,
  "\u258147": 1565,
  "\u258148": 1575,
  "\u2581480": 1581,
  "\u258149": 1586,
  "\u25814:": 1447,
  "\u25814:00": 1472,
  "\u25815": 1602,
  "\u25815%": 1613,
  "\u25815)": 1611,
  "\u25815*": 1612,
  "\u25815,000": 1640,
  "\u25815-": 1608,
  "\u25815-10": 1660,
  "\u25815-6": 1695,
  "\u25815-7": 1702,
  "\u25815.": 1610,
  "\u25815.0": 1624,
  "\u25815.000": 1641,
  "\u25815.1": 1656,
  "\u25815.2": 1666,
  "\u25815.5": 1685,
  "\u258150": 1620,
  "\u258150%": 1626,
  "\u258150'": 1625,
  "\u258150,000": 1645,
  "\u258150.000": 1646,
  "\u258150/60": 1652,
  "\u2581500": 1633,
  "\u2581500,000": 1649,
  "\u2581500.000": 1650,
  "\u25815000": 1638,
  "\u258151": 1655,
  "\u258151%": 1657,
  "\u2581512": 1662,
  "\u258152": 1665,
  "\u258153": 1673,
  "\u258154": 1679,
  "\u258155": 1684,
  "\u2581550": 1689,
  "\u258156": 1694,
  "\u258157": 1701,
  "\u258158": 1709,
  "\u258159": 1716,
  "\u25815:": 1609,
  "\u25815:00": 1635,
  "\u25816": 1725,
  "\u25816)": 1732,
  "\u25816,000": 1755,
  "\u25816-": 1729,
  "\u25816.": 1731,
  "\u25816.0": 1743,
  "\u25816.1": 1767,
  "\u25816.5": 1792,
  "\u258160": 1739,
  "\u258160%": 1745,
  "\u258160'": 1744,
  "\u258160,000": 1758,
  "\u2581600": 1749,
  "\u2581600,000": 1761,
  "\u25816000": 1754,
  "\u258161": 1766,
  "\u258161%": 1768,
  "\u258162": 1773,
  "\u258163": 1780,
  "\u258164": 1785,
  "\u258164-": 1786,
  "\u258165": 1791,
  "\u258165%": 1793,
  "\u2581650": 1797,
  "\u258166": 1800,
  "\u258167": 1808,
  "\u258168": 1814,
  "\u258169": 1818,
  "\u25816:": 1730,
  "\u25816:00": 1750,
  "\u25817": 1828,
  "\u25817)": 1836,
  "\u25817,": 1833,
  "\u25817,000": 1856,
  "\u25817-": 1832,
  "\u25817.": 1835,
  "\u25817.0": 1844,
  "\u25817.1": 1865,
  "\u25817.5": 1890,
  "\u25817/24": 1874,
  "\u258170": 1842,
  "\u258170%": 1846,
  "\u258170'": 1845,
  "\u2581700": 1851,
  "\u25817000": 1855,
  "\u258171": 1864,
  "\u258171%": 1866,
  "\u258172": 1870,
  "\u2581720": 1873,
  "\u258173": 1877,
  "\u258174": 1882,
  "\u2581747": 1887,
  "\u258175": 1889,
  "\u258175%": 1891,
  "\u2581750": 1896,
  "\u258176": 1900,
  "\u258177": 1907,
  "\u258178": 1915,
  "\u258179": 1922,
  "\u25817:": 1834,
  "\u25817:00": 1852,
  "\u25818": 1932,
  "\u25818%": 1939,
  "\u25818,": 1937,
  "\u25818,000": 1959,
  "\u25818-": 1936,
  "\u25818.": 1938,
  "\u25818.1": 1968,
  "\u25818.5": 1993,
  "\u258180": 1945,
  "\u258180%": 1948,
  "\u258180'": 1947,
  "\u2581800": 1954,
  "\u25818000": 1958,
  "\u2581802.11": 1964,
  "\u258181": 1967,
  "\u258181%": 1969,
  "\u258182": 1974,
  "\u258183": 1981,
  "\u258184": 1987,
  "\u258185": 1992,
  "\u258185%": 1994,
  "\u2581850": 1998,
  "\u258186": 2003,
  "\u258187": 2012,
  "\u258188": 2018,
  "\u258189": 2027,
  "\u25818:00": 1955,
  "\u25819": 2037,
  "\u25819,": 2041,
  "\u25819.": 2042,
  "\u25819/11": 2079,
  "\u258190": 2049,
  "\u258190%": 2053,
  "\u258190'": 2052,
  "\u2581900": 2058,
  "\u25819001": 2066,
  "\u258191": 2073,
  "\u258191%": 2074,
  "\u2581911": 2078,
  "\u258192": 2081,
  "\u258193": 2086,
  "\u258194": 2089,
  "\u258195": 2094,
  "\u258195%": 2095,
  "\u2581950": 2100,
  "\u258196": 2102,
  "\u258196%": 2103,
  "\u258197": 2108,
  "\u258197%": 2109,
  "\u258198": 2114,
  "\u258198%": 2115,
  "\u258199": 2121,
  "\u258199%": 2123,
  "\u258199.9": 2129,
  "\u258199.9%": 2130,
  "\u258199.95%": 2132,
  "\u25819:00": 2059,
  "\u2581:": 107,
  "\u2581:(": 109,
  "\u2581:)": 110,
  "\u2581:))": 111,
  "\u2581::": 108,
  "\u2581;": 105,
  "\u2581;)": 106,
  "\u2581=": 91,
  "\u2581==": 92,
  "\u2581===": 93,
  "\u2581=>": 94,
  "\u2581>": 95,
  "\u2581>>": 96,
  "\u2581?": 115,
  "\u2581@": 144,
  "\u2581A": 2138,
  "\u2581AB": 2152,
  "\u2581ABB": 2161,
  "\u2581ABC": 2169,
  "\u2581ABD": 2172,
  "\u2581ABOUT": 2256,
  "\u2581ABS": 2270,
  "\u2581AC": 2302,
  "\u2581ACADEMIC": 2318,
  "\u2581ACT": 2592,
  "\u2581ACTIVITIES": 2623,
  "\u2581AD": 2652,
  "\u2581ADA": 2657,
  "\u2581ADAMUS": 2687,
  "\u2581ADD": 2720,
  "\u2581ADHD": 2760,
  "\u2581AF": 2963,
  "\u2581AFTER": 3023,
  "\u2581AG": 3033,
  "\u2581AGAIN": 3060,
  "\u2581AI": 3182,
  "\u2581AIDS": 3187,
  "\u2581AIR": 3224,
  "\u2581AK": 3265,
  "\u2581AKP": 3319,
  "\u2581AKTS": 3375,
  "\u2581AL": 3390,
  "\u2581ALAN": 3433,
  "\u2581ALANYA": 3455,
  "\u2581ALL": 3684,
  "\u2581ALLAH": 3691,
  "\u2581ALMA": 3732,
  "\u2581ALWAYS": 3866,
  "\u2581AM": 3873,
  "\u2581AMD": 3957,
  "\u2581AMP": 4021,
  "\u2581AN": 4041,
  "\u2581ANA": 4048,
  "\u2581ANASAYFA": 4107,
  "\u2581AND": 4142,
  "\u2581ANKARA": 4249,
  "\u2581ANKO": 4254,
  "\u2581ANSI": 4431,
  "\u2581ANTALYA": 4449,
  "\u2581ANY": 4524,
  "\u2581AP": 4547,
  "\u2581APARTMENT": 4561,
  "\u2581API": 4570,
  "\u2581APK": 4574,
  "\u2581APP": 4591,
  "\u2581APPLICATION": 4632,
  "\u2581AQUA": 4690,
  "\u2581AR": 4700,
  "\u2581ARE": 4886,
  "\u2581ARM": 5002,
  "\u2581ART": 5074,
  "\u2581ARTICLE": 5091,
  "\u2581AS": 5163,
  "\u2581ASAP": 5192,
  "\u2581ASEAN": 5199,
  "\u2581ASME": 5292,
  "\u2581ASP": 5294,
  "\u2581ASTM": 5394,
  "\u2581ASUS": 5421,
  "\u2581AT": 5435,
  "\u2581ATM": 5536,
  "\u2581AU": 5632,
[...]
